#version: 0.2
á ŀ
á Ł
áŁ Ĵ
áŀ ¶
áŀ ĵ
áŀ ļ
áŀ Ģ
áŀ Ķ
áŀ ĺ
áŀ Ł
áŀ Ħ
áŀ ı
Ġ t
Ġ a
h e
áŀ Ľ
i n
áŀ ĳ
áŀ ĸ
áŀ ĩ
áŀ Ļ
áŀ ·
áŁ Ĩ
áŁ ĭ
áŀ »
áŀ Ĭ
e r
Ġt he
o n
áŁ ģ
r e
áŀ ħ
áŀ ¸
Ġ o
áŀ Ĥ
â Ģ
áŀ ľ
áŁ Ĥ
n d
âĢ ĭ
a t
Ġ s
Ġ c
e d
e n
áŀ ¼
i s
áŀ ¾
o r
e s
i t
áŀ ¢
a l
Ġo f
áŁ Ħ
Ġ in
a n
Ġ w
áŁ ĩ
áŀ ģ
Ġa nd
Ġ f
áŀ ½
Ġ b
Ġ p
áŀ İ
áŁ ħ
a r
o u
áŁ Ķ
in g
Ġ m
i on
a m
o m
i c
áŀ¶ áŁĨ
a s
Ġ d
áŀ Ĺ
áŀ Ĵ
áŀ ł
Ġt o
l e
áŀ ī
Ġ C
o d
áŀ ¹
en t
Ġ áŁ
Ġ áŀĵ
Ġ h
áŀļ áŀĶ
Ġ T
áŀ Ĳ
áŀĢ áŀĺ
c t
áŁ ĥ
áŀ ķ
áŁ Ģ
Ġ re
i l
áŁ ł
Ġ is
Ġ K
am b
Ġ l
Ġ e
v e
od i
Ġ (
s t
Ġ A
amb odi
Ġ S
áŁ ī
Ġ n
áŁ Ĳ
r o
at ion
Ġ P
m er
l y
áŀ Ĩ
Ġt h
ĠC ambodi
Ġb e
h mer
¡ áŁ
u r
c h
v er
áŀĶ áŀĵ
e m
o l
Ġa s
áŁĦ áŁĩ
Ġ g
áŁģ áŁĩ
t h
Ġ 1
áŀļ áŀĬ
ĠK hmer
c e
r i
áŀ º
áŀŁ áŀĺ
áŀ ¡
áŀĵ áŀĢ
ĠT he
r a
Ġ áŀĢ
u s
áŀĵ áŀĶ
is t
áŀ ĭ
Ġb y
u l
e t
áŀļ áŀĩ
o w
Ġa re
áŀļ áŀĳ
Ġc on
Ġ áŀĬ
ĠCambodi a
Ġf or
Ġ I
n g
Ġs t
it h
g e
Ġ 2
r om
áŀļ áŀĢ
áŀľ áŀĶ
Ġ R
áŀļáŀĶ áŀŁ
i m
l a
áŀĦ áŀĳ
áŀ¢ áŀĦ
t er
Ġ áŀĶ
áŀĦ áŀĢ
Ġw ith
áŀĦ áŀĶ
i g
áŀĺ áŀĢ
a p
Ġ áŀŁ
i d
Ġ on
Ġ M
áŀĦ áŀŁ
u n
Ġf rom
o p
e ct
áŁ Ī
es t
áŀĦ áŀĵ
ĠáŁ ¡áŁ
Ġw h
i r
he r
it y
a d
Ġw as
o t
Ġ B
a y
i v
u t
áŁ ¢
áŀĻ áŀĢ
re s
Ġ2 0
u d
áŀľ áŀı
áŁ ı
áŀĺ áŀļ
áŀĩ áŀĵ
Ġth at
m ent
o s
k or
© áŁ
er s
Ġo r
Ġa l
ng kor
' s
i ve
Ġ áŀĤ
at e
Ġ W
Ġ áŀĺ
áŁ į
Ġ v
Ġ áŀĸ
Ġp ro
Ġd e
áŁī áŀ¶
i al
áŀĺ áŀĵ
áŁł áŁł
Ġ it
ou n
a in
i es
áŀı áŀĵ
Ġa n
áŀĽ áŀĶ
Ġ k
Ġs u
áŀĵ áŀĵ
at ed
t s
on g
ou r
áŀļ áŀŁ
ĠA ngkor
Ġ F
áŁ Ĺ
áŀĻ áŀĶ
an g
áŁ Ĭ
áŀŁ áŀĵ
o re
e l
a nd
p le
áŀļ áŀł
Ġ r
Ġ1 9
Ġa t
a k
c es
áŀ Ī
áŀļ áŀĺ
0 0
áŀĵ áŀĬ
áŀļ áŀĸ
Ġc om
Ġw or
u re
áŁ ¡áŁ
Ġ áŀģ
al l
h n
áŀĦ áŀı
Ġ "
áŀĦ áŀĸ
ic h
a b
o c
as t
áŀĦ áŀĩ
ic al
Ġe x
r ou
Ġh as
i f
u m
p e
or t
áŀĻ áŀŁ
áŀĻ áŀĸ
ou s
áŁ Į
áŀĵ áŀĤ
Ġh a
ar t
Ġwh ich
r u
Ġ H
Ġ V
áŀı áŀŁ
il l
ĠCambodi an
a ge
áŁ ¥
ĠáŁ ¢
áŀĦ áŀ¢
ĠT h
r y
Ġ N
Ġ us
ou t
áŀļ áŀĵ
áŀĢ áŀĵ
c l
q u
hn om
Ġ áŀı
áŀļ áŀı
áŀĻ áŀĵ
Ġs e
áŀ Į
Ġt em
a c
Ġ áŀĳ
áŀĵ áŀĩ
áŀĻ áŀĺ
en h
áŀļ áŀİ
áŀĦ áŀĬ
ĠP enh
o st
áŀ ĥ
áŀĽ áŀĺ
p p
Ġc ent
Ġ /
Ġha ve
it ion
ĠC h
Ġ áŀļ
Ġ le
oun t
ĠS i
Ġn e
Ġ áŀ¢
áŀ ±
Ġ áŀĩ
es e
áŀĻ áŀĬ
g h
áŀĵ áŀŁ
áŀı áŀĺ
om e
ĠI n
áŁ ¡
áŀĵ áŀĳ
áŀı áŀĢ
áŀĦ áŀĺ
Ġa r
áŀĽ áŀĵ
l d
áŁ £
ĠP hnom
T he
áŀļ áŀľ
ĠáŁ¡áŁ ©áŁ
i et
l es
s o
áŀĵ áŀħ
ct ion
s e
áŀ¶ âĢĭ
áŀĦ áŀħ
Ġc l
Ġ D
Ġ E
an t
áŀĢ áŀĬ
áŀĺ áŀĶ
áŀĦ áŀģ
áŁĭ âĢĭ
re n
Ġin t
áŁī áŀ»
o ver
áŁ ¤
ĠR e
Ġ áŀħ
áŀĢ áŀŁ
er e
áŁī áŁĤ
ation al
áŀļ áŀħ
áŀĬ áŀĽ
áŁĬ áŀ¸
Ġc h
ul t
ter n
ig h
Ġ20 1
) .
p t
áŀĶ áŀı
ar y
r an
Ġs y
áŀ¢ áŀĵ
Ġbe en
c ed
t her
Ġ u
ĠW at
l ow
Ġ he
áŀļ áŀĦ
áŀ» áŁĨ
ang u
Ġ L
Ġ un
Ġw ere
d h
Ġ U
áŀĽ áŀĢ
in e
áŀĸ áŀŁ
Ġit s
áŁ ¦
áŀĢ áŀļ
Ġa b
Ġs h
Ġcon t
Ġal so
Ġtem ple
n am
áŀĦ áŀļ
áŀĴ áŀĺ
Ġre l
Ġcon s
o k
Ġ O
áŀļ áŀĹ
áŀĦ áŀĨ
Ġp art
i re
áŀ¶ áŁĶ
áŀĵ áŀļ
áŀĵ áŀı
Ġs p
is m
Ġp er
e ar
áŀĸ áŀĦ
ar d
as s
op ul
ĠV iet
a v
áŀ §
áŀŁ áŀı
áŀĤ áŀļ
ud dh
) ,
in ce
áŀħ áŀĺ
áŀĦáŀĳ áŀĵ
cl ud
ve l
Ġ ver
it e
ĠViet nam
i an
u st
áŀ ¯
áŀĺ áŀĳ
at er
ĠáŁ ł
a g
re d
al ly
Ġin clud
ation s
ĠB uddh
Ġcent ur
angu age
j ect
Ġ G
Ġ y
áŀ» áŁĩ
áŀħ áŀĢ
Ġc ity
or d
b er
d ition
áŀ ²
Ġt ra
áŀĽ áŀĳ
Ġ áŁĶ
áŀĵ áŀĸ
Ġc ount
Ġp opul
b le
c c
i e
he n
Ġm ost
Ġn ot
áŀĶ áŀĦ
áŀĦ áŀĽ
áŀĦ áŀĤ
áŀĽ áŀŁ
ion s
Ġd is
a il
Ġa d
áŀħ áŀĵ
en ce
ou nd
Ġre g
Ġre p
il d
ig n
Ġwor d
i a
i p
m p
o g
É Ļ
Ġ J
Ġ áŀł
áŀ ¿
ĠRe ap
Ġ ro
áŀĻ áŀħ
Ġs er
Ġin d
ur ing
áŀĺ áŀł
on e
at ive
f f
áŀ ¥
áŀı áŀİ
áŀĻ áŀĽ
áŀħ áŀĩ
am e
ic e
ĠA s
ur al
Ġ áŀľ
áŁ §
ru ct
áŀ¸ âĢĭ
Ġo ver
Ġo ther
áŀĤ áŀħ
rou nd
c on
l is
Ġ im
áŁ ¨
áŀŁ áŀĦ
áŀŁ áŀĢáŀĺ
áŀĻ áŀĩ
Ġl anguage
id e
Ġcount ry
Ġ áŀĽ
áŀŁ áŀļ
Ġt our
Ġp e
res s
Ġsu ch
over n
áŀı áŀĬ
áŀĽ áŀĬ
âĢ ĵ
Ġin f
Ġf ol
Ġre s
ĠI t
Ġus ed
ĠSi em
Ġint o
K hmer
t en
áŀĵ áŀķ
áŀļ áŀĤ
nd er
áŁħ âĢĭ
Ġm on
e en
áŀĶ áŀŁ
he d
áŀĽ áŀĸ
áŀĻ áŀĳ
ĠI nd
Ġpro v
Ġcom m
p er
w o
Ġ áŀĹ
áŀĵ áŀĺ
áŀĢ áŀĶ
áŀı áŀĶ
in d
Ġthe y
Ġthe ir
Ġs ome
Ġc an
an ce
Ġp r
Ġth is
ow n
a ch
o th
áŀĵ áŀ¢
áŀĺ áŀĺ
áŀı áŀļáŀĩ
áŀĤ áŀĦ
Ġb ut
Ġp la
C ambodi
b s
c ri
k s
u res
áŀŁ áŀħ
Ġm ore
ist s
op le
el l
f ter
w een
Ġ en
áŀļ áŀģ
áŀĢ áŀĳ
áŀĢ áŀ¢
áŀĽ áŀĩ
Ġs pe
Ġc ap
Ġm ay
Ġbe t
Ġg overn
Ġcentur y
o od
áŁ ©
áŀļ áŀĽ
Ġm ar
Ġto w
ment s
00 0
Ġfol low
I n
Ġ [
áŀļ áŀĻ
áŀĦ áŀľ
áŀĸ áŀĵ
áŀĤ áŀĺ
Ġm e
am p
áŀł áŀĵ
Ġe v
áŀĩáŀĵ áŀĩ
os e
Ġbet ween
f er
i le
r it
r al
u c
v ed
re e
or s
ing s
Ġh ad
Ġl ar
Ġu nder
i ous
p h
áŀĢ áŀĢ
it al
an y
Ġ20 2
Ġne w
Ġpart ic
Ġy ear
a ct
l la
t e
u b
áŀĳ áŀĵ
áŀĳ áŀŁ
áŀľ áŀĺ
Ġp re
ic t
Ġex p
ren ch
Ġ 3
áŀŁ áŀĹ
Ġt wo
áŁĭ áŁĶ
ou ge
Ġd uring
Ġbe c
ĠR ouge
vel op
Ġpopul ation
/ ,
a i
áŀļ áŀ¢
áŀĢ áŀĩ
áŀĶ áŀĬ
áŀı áŀĳ
at es
Ġre m
Ġfor m
ĠF rench
o ve
u e
Ġ 9
Ġ j
Ġ ri
áŀĢ áŀĽ
er n
Ġin v
us e
Ġcon st
Ġ20 0
g in
i k
áŀĶ áŀī
áŀĺ áŀĩ
áŀı áŀĸ
áŀĩ áŀĴ
áŀľ áŀĢ
or y
Ġb as
Ġp h
áŀī áŀĵ
ol og
Ġon e
iv es
ab le
áŁĮ áŁĴ
ac k
áŀļ áŀĴ
at h
an s
Ġm ain
Ġm ill
ĠáŁ £
Ġre c
il y
iv ed
Ġcom p
áŁ¡áŁ ©áŁ
ran s
ĠVietnam ese
Ġinclud ing
ĠBuddh ist
Ġtra dition
c i
p ort
áŀ ¬
áŀļ áŀĢáŀĺ
áŀĢ áŀĸ
áŀĶ áŀĶ
áŀĸ áŀĽ
or m
Ġd es
Ġe le
Ġth an
áŁĦáŁĩ âĢĭ
ces s
y al
Ġ áŀĢáŀĺ
áŀļ áŀľáŀı
áŀĢ áŀģ
áŀĺ áŀı
áŀĺ áŀĸ
áŀĦ áŀŁáŀĺ
áŀĦ áŁĹ
he ast
Ġof f
Ġf ore
Ġh is
ĠA r
áŀĺáŀĢ áŀĸ
ir st
Ġ19 9
Ġat t
rou gh
ĠCh in
l o
áŀļ áŀļ
áŀĢ áŀĤ
áŀĺ áŀŁ
áŀĺ áŀĬ
áŀĻ áŀ¢
on s
áŀľ áŀĳ
Ġw hen
Ġb u
ĠK ing
áŀĭ áŀĶ
res ent
tern ational
Cambodi a
e k
i z
n own
Ġ ra
áŀĵ áŀĽ
áŀĦ áŀĹ
Ġt e
áŀĽ áŀļ
áŀĻ áŀģ
áŀĤ áŀĵ
áŀĤ áŀı
or th
es s
Ġf irst
Ġp ol
ou gh
Ġwh o
Ġ19 7
ak e
all er
Ġar ch
Ġpe ople
Ġgovern ment
f ore
g est
i od
l ic
p les
t ed
Ġ áŁĴ
Ġ áŀ¢áŀĦ
áŀĽ áŀĤ
áŀħ áŀĶ
Ġf e
áŀī áŀĸ
ul ar
áŁĪ âĢĭ
ay s
ain s
Ġch ild
Ġab out
Ġcap ital
b ject
Ë Ĳ
Ġ âĢĭ
Ġ est
áŀĺ áŀģ
Ġa cc
Ġa fter
áŀľ áŀĩ
Ġc ult
is e
Ġm a
ro w
áŀĵáŀĢ áŀŁ
im e
Ġrel ig
Ġper iod
Ġword s
cri pt
) áŁĶ
i ver
Ġ qu
áŀĵ áŀĹ
áŀĵ áŀĴ
áŀĦ áŀķ
áŀĽ áŀı
Ġo ri
Ġs c
en s
it ect
Ġm any
Ġd ist
od u
ĠS out
Ġn um
ow er
Ġare a
Ġst ruct
Ġk ing
ĠTh is
Ġcl ass
Ġsy lla
ie f
Ġmill ion
p s
áŀĵ áŀ¡
áŀĢ áŀı
áŀĶ áŀħ
he re
re at
áŀľ áŀŁ
Ġc ol
ar m
ou th
Ġm i
ic ial
od ern
áŁģáŁĩ áŁĶ
Ġde c
Ġde velop
Ġwor k
all ed
ĠTh ail
ĠáŁ¡áŁ©áŁ §
ĠáŁł áŁ¢
ĠThail and
" .
Ã ©
Ġ áŀļáŀĬ
Ġt rans
áŀĩ áŀĢ
áŀĻ áŀľáŀĺ
Ġthe re
at ing
Ġs ur
it s
it ed
áŀ¢ áŀı
Ġf am
áŁĥ âĢĭ
ĠS ap
ri m
" ,
5 0
c ial
g an
h a
l u
u al
Ġ áŀĻ
Ġ ent
Ġ áŀĲ
Ġ áŀķ
áŀĢ áŀħ
áŀĶ áŀĢ
áŀĶ áŀĺ
áŀĶ áŀĳ
áŀŁ áŀĳ
áŀı áŀĩ
Ġt er
Ġs ince
Ġs ite
en er
en ces
Ġin ter
Ġf ound
ar ch
Ġl oc
st em
ĠS t
Ġth ree
Ġg aller
ri b
im ate
áŀĦáŀŁ áŀĦ
Ġk m
Ġk nown
Ġsu pp
Ġus e
igh t
mp ire
ik e
Ġarch itect
h an
i ed
j or
t il
Ġ áŀĨ
áŀĶ áŀļ
áŀĻ áŀĹ
Ġc o
it ies
Ġin c
áŀģ áŀİ
Ġb oth
Ġp l
ou k
Ġth rough
ol d
ad e
Ġv ow
Ġcom ple
if ic
ru ction
ĠD e
Ġcons on
ag es
Ġro yal
lis h
Ġmar k
i ble
m b
Ġ 8
áŀĵ áŀŁáŀĺ
áŀĶ áŀĴáŀĺ
áŀĦ áŀİ
áŀĦ áŀĴ
áŀĻ áŀļ
Ġo ut
áŁĤ âĢĭ
Ġin st
áŀİ áŀı
om in
ĠT on
Ġe ar
ĠS en
Ġ1 8
Ġv is
ous e
ĠH ind
Ġse con
áŀ¥ áŀİ
Ġyear s
Ġma jor
ĠHind u
Ġsecon d
e w
p ical
Ġ áŀŁáŀĺ
áŀĵ áŀģ
áŀļ áŀ¡
áŀĶ áŀĤ
áŀŁ áŀĸ
áŀŁ áŀĩ
áŀı áŀģ
Ġa c
Ġa g
Ġa round
re as
áŀ¸ áŁĶ
al e
al s
Ġof ten
an ts
Ġp os
Ġd ance
Ġh ist
Ġl ater
Ġn oun
ĠP ro
Ġg rou
her n
áŁ¢ áŁłáŁł
áŀļáŀł áŀĺ
Ġtem ples
ĠSi han
Ġsy stem
ĠChin ese
Ġori gin
ĠSout heast
Ġvow el
ĠSihan ouk
a ce
n ing
Â °
áŀŁ áŀĢ
áŀŁ áŀĬ
áŀĦ áŀ¡
áŀı áŀķ
Ġt y
áŀĩ áŀĶ
áŀĻ áŀĤ
áŀĻ áŀĢáŀĺ
er ed
áŀħ áŀĳ
Ġc alled
áŀ¢ áŀŁ
Ġin s
Ġw all
Ġd ial
Ġd if
áŀĴ áŀĵ
Ġe nd
áŁī áŁģ
Ġbe fore
ĠThe re
áŀĭ áŀĺáŀĵ
Ġwh ile
Ġpro t
pe nd
ĠN ational
Ġu p
Ġrep resent
Ġdial ect
6 0
d om
o in
r as
t y
t ain
áŀĵ áŀĨ
áŀĵ áŀ¢áŀĵ
áŀŁ áŀĻ
áŀĦ áŀĲ
áŀĦ áŀĢáŀĺ
áŀĦ áŀļáŀĬ
áŀı áŀı
he s
áŀĻ áŀĲ
áŀĻ áŀ¢áŀĦ
áŀľ áŀĦ
Ġc ar
Ġm odern
Ġd o
ent s
ra ct
im es
Ġcent ral
Ġim p
Ġinf lu
Ġsylla ble
A ngkor
s ion
u ally
Ġ áŀļáŀĶ
Ġ áŀĪ
áŀļ áŀĲ
áŀĢ áŀĦáŀĳ
áŀı áŀħ
at her
Ġs oc
Ġc la
is ed
Ġw ell
Ġf t
ic s
Ġd an
ĠáŁ ¡
Ġre st
Ġl ike
Ġn orth
Ġbe ing
áŀĵáŀĶ áŀĦ
la nd
ĠáŁ¡áŁ ¨
áŁĹ áŀĵ
áŁĬ áŀ»
ĠáŁ¢ áŁłáŁł
ĠL a
Ġser v
lis hed
Ġtour ists
Ġtradition al
Ġoff icial
ĠAr ch
2 0
Ġ 4
áŀĵ áŀĲ
áŀļ áŀĨ
áŀŁ áŀĶ
áŀı áŀĶáŀĵ
Ġa pp
áŀĤ áŀĢ
âĢ Ķ
Ġp ers
Ġm in
áŀĴ áŀŁ
áŀī áŀĳ
áŀī áŀĬ
ĠáŁ ¤
ĠáŁ ĸ
Ġl and
em ber
Ġg ener
ng lish
áŁ¢ áŁł
Ġal ong
Ġv ar
ak ing
ĠH un
áŀıáŀŁ áŀĢáŀļ
ĠTh ai
áŁ¡ áŁł
Ġun til
Ġver bs
Ġpr on
ief s
a u
a re
h ip
i x
m e
m in
r am
à ¤
áŀļ áŀķ
áŀĺ áŀĤ
áŀĦ áŀł
áŀı áŀ¡
áŀı áŀĬáŀĽ
áŀĳ áŀĳ
áŀĻ áŀī
áŀľ áŀĵ
áŀ¾ âĢĭ
Ġf l
Ġp ower
ou ld
Ġd ue
ĠC ent
ĠáŁ ¦
ĠáŁ §
ĠP e
ri ed
áŀĵáŀĶ áŀİ
áŀĭ áŀĢ
ĠáŀĬ áŀĽ
Ġst ate
id ent
áŀĺáŀļ áŀĻ
Ġor d
Ġal l
um an
Ġar t
ĠE nglish
Ġcons id
Ġcomm on
Ġcomm un
Ġlar ge
Ġlar gest
ek ong
Ġnum ber
b ers
c y
i b
p ect
u p
u ch
y s
Ê °
Ġ ed
Ġ her
áŁ ĸ
áŀĵ áŀľ
áŀĺ áŀħ
áŀĳ áŀĶ
áŀĳ áŀĩ
áŀĸ áŀı
áŀħ áŀı
Ġo cc
Ġo bject
Ġc or
Ġw e
Ġw ater
Ġb o
om m
om et
ĠáŁ ¨
Ġh igh
il la
ĠK amp
Ġl it
ĠA n
Ġn ame
ĠP ar
id ed
Ġon ly
ĠM a
áŁłáŁł áŁł
Ġex am
art y
ĠIn ternational
ĠE mpire
ran ce
ĠU N
áŀĤáŀļ áŀľáŀı
ĠBuddh ism
Ġcentur ies
ound s
ĠAs ia
Ġme an
Ġconst ruction
Ġfore st
Ġpol it
Ġchild ren
Ġrelig ious
Ġfam ily
f orm
w ay
áŀĶ áŀİ
áŀŁ áŀĽ
áŀĦ áŀĻ
áŀı áŀļ
áŀĽ áŀķ
in al
áŀĻ áŀķ
Ġthe se
áŀĤ áŀģ
es tern
Ġw rit
Ġd iv
áŀĹ áŀĸáŀĽ
Ġe mp
Ġn o
us es
ĠM ekong
ot her
áŀĩáŀĵ áŀĢáŀĺ
ĠW or
ain ed
Ġwor ld
if e
Ġcont in
ire ct
Ġinclud e
ord ing
Ġreg ion
ĠInd ian
Ġpr odu
Ġph ras
Ġstruct ure
Ġdec or
Ġinc reas
Ġpos s
Ġdif fer
Ġprot ect
Ġapp ro
P hnom
e x
e ch
l l
n e
p en
r ic
r ast
t he
Ġ 5
Ġ er
áŀ į
áŀļ áŀļáŀĶáŀŁ
áŀĢ áŀł
áŀı áŀĽ
áŀı áŀ¢
Ġa m
áŀĳ áŀĽ
áŀĻ áŀĨ
on d
áŀľ áŀľáŀŁ
âĢĭ âĢĭ
at ures
is h
an k
ar s
Ġm o
Ġm ade
áŀī áŀĺ
áŀī áŀĩ
ĠáŁ ¥
Ġh ouse
il t
Ġl a
Ġn ational
Ġth ose
Ġbe gan
Ġas s
Ġ1 1
Ġst y
ap an
ĠáŁ¡áŁ ¥
áŀĻáŀĢ áŀļáŀĬ
ive ly
Ġde p
Ġr ice
áŁ¡áŁ ¡áŁ
Ġar m
Ġsy mb
ĠU n
Ġver b
áŀ¯ áŀĢáŀŁ
Ġpopul ar
ail y
ĠJ apan
Ġind ic
Ġtour ism
Ġpartic les
Ġbec ome
olog y
ci ent
Ġest ab
Ġconson ant
ĠTon le
Ġvis it
Ġpron oun
Ġexam ple
Ġsymb ol
a red
a use
e ver
w or
Ġ 7
Ġ Â°
áŀĶ áŀģ
áŀĺ áŀİ
áŀı áŀĲ
Ġt ime
Ġa p
áŀĽ áŀģ
áŀĽ áŀĢáŀĺ
er v
áŀħ áŀĬ
áŀľ áŀĲ
áŀľ áŀĮ
áŁĤ áŁĴ
at t
Ġs o
Ġs et
Ġs im
Ġs ign
or ts
or ical
áŀ¢ áŀĢ
Ġp ub
Ġm us
Ġd em
Ġh ow
Ġre f
Ġl ed
Ġe ff
Ġe con
Ġe ach
Ġ( '
Ġbe l
Ġ1 4
áŀĭ áŀŁáŀĹ
áŁı âĢĭ
Ġv illa
Ġpro ject
ĠF or
ĠCambodian s
áŁ¥ áŁł
Ġse ver
Ġle ad
ĠSi am
áŀļáŀħ áŀĵ
Ġsh ow
ok en
áŀļáŀĹ áŀĸ
Ġsp oken
áŀŁáŀı áŀľáŀı
ÉĻ j
ĠAs ian
áŀŁáŀħ áŀļáŀİ
Ġtow ers
Ġfollow ing
áŁ¡áŁ©áŁ §
Ġbu ilt
Ġarchitect ure
Ġsoc ial
Ġecon om
7 8
e nd
l i
n er
p re
Ġ 6
Ġ áŀ¬
áŀĵ áŀł
áŀĺ áŀĴ
áŀŁ áŀł
áŀı áŀļáŀĶáŀŁ
Ġa u
áŀĽ áŀħ
in ces
áŀĻ áŀļáŀĬ
Ġo pp
Ġs ent
Ġs ch
Ġs out
Ġs outh
it ut
al ity
an ge
Ġw om
Ġf our
ic es
áŀī áŀĶ
áŀī áŀħ
Ġg ar
Ġg ra
Ġ1 6
ri es
áŀº âĢĭ
Ġare as
Ġst at
áŀļáŀĢ áŀĥ
ĠR o
ĠR iver
ĠáŁ¡áŁ ¢
iv al
iv il
oc i
ĠáŁ¢ áŁł
áŀĦáŀ¢ áŀŁ
áŀļáŀİ áŀļáŀĬ
áŀĵáŀĳ áŀĳ
ĠáŁ¡áŁ©áŁ ©áŁ
Ġsp ir
áŀ§ áŀı
ress ed
Ġprov ince
cri b
olog ical
Ġfore ign
Ġbu ild
arm an
rib ut
Ġsupp ort
Ġcomple x
Ġord er
Ġcontin u
. .
1 9
8 0
a e
a ir
d e
d ay
e pend
f ul
i qu
l ine
n ic
o ol
u ng
w est
Ã ¢
É ĳ
Ġ Y
Ġ âĢ
Ġ áŀĥ
áŀļ áŀŁáŀĺ
Ġa ct
he a
áŀĽ áŀĹ
in s
áŀĳ áŀ¢áŀĦ
áŀĻ áŀı
áŀĻ áŀĻ
áŀĻ áŀł
áŀħ áŀŁ
Ġs it
Ġin ternational
Ġw ar
Ġw est
áŁĩ âĢĭ
Ġb ack
Ġp ract
ar ies
om p
as on
Ġd irect
áŀĴ áŀķ
le ct
Ġl ong
Ġe th
Ġ( "
ur y
ver s
Ġg row
th ough
Ġ1 2
Ġ1 7
Ġwith in
ĠM ount
os ed
Ġpro cess
Ġan cient
ĠF rance
ill ed
ction s
over ed
Ġab ove
ord in
Ġdis c
Ġdis p
Ġrep ort
uc ation
Ġinv est
Ġ197 0
Ġcult ure
Ġsur round
Ġloc al
Ġgrou ps
ĠArch ived
Ġmus ic
c ing
e p
i ÉĻ
l ing
n ect
r on
r ing
t o
u k
v en
x imate
y th
Å ĭ
Ġ '
Ġ es
áŀĵ áŀĢáŀĺ
áŀļ áŀĪ
áŀĢ áŀĹ
áŀĢ áŀħáŀĺ
áŀĶ áŀĲ
áŀĺ áŀľ
áŀĺ áŀ¢
áŀĺ áŀĹ
áŀı áŀľáŀı
áŀĽ áŀĴ
áŀĳ áŀĵáŀļ
áŀĻ áŀ¡
re l
Ġo ld
áŀĤ áŀĺáŀĵ
áŀľ áŀĹ
at ives
Ġs ing
or ation
it her
an a
Ġw here
Ġp ass
ic k
áŀ¶áŁĨ âĢĭ
Ġd er
le ar
il ity
áŀĵáŀĢ áŀĬ
ĠThe se
ra ph
áŀĵáŀĶ áŀī
Ġcon c
ĠI I
ĠáŁ¡áŁ ¤
áŁį áŁĶ
Ġde ath
Ġsu b
ru pt
ĠáŁ¡áŁ©áŁ ¥
Ġ201 0
av arman
Ġad dition
Ġser ies
Ġind ust
Ġind epend
Ġmon u
Ġspe c
Ġri gh
Ġdes crib
Ġdist in
Ġgaller y
Ġhist orical
Ġty pical
Ġdan ces
Ġpers on
ĠPe ople
Ġlit er
Ġpolit ical
ĠWor ld
Ġappro ximate
Ġer a
Ġsever al
Ġapproximate ly
' )
1 5
B N
a ren
b an
e c
g et
p r
r ong
s ide
v ing
w ays
y ed
© áŁł
É ¨
É Ķ
Ġ áŀĶáŀĵ
Ġ áŀ§
áŀĵ áŀĶáŀĵ
áŀĵ áŀļáŀĶáŀŁ
áŀĵ áŀĪ
áŀĢ áŀľ
áŀŁ áŀŁ
áŀı áŀĤ
Ġt ro
in ist
áŀĳ áŀļ
áŀĳ áŀĺ
áŀĳ áŀħáŀĵ
áŀĸ áŀĬ
áŀĩ áŀĺ
áŀĩ áŀĬ
Ġthe n
áŀħ áŀĤ
Ġc as
Ġc ivil
en ced
is ing
it age
Ġp res
Ġp rim
Ġd am
Ġd omin
ent ly
ĠT our
Ġre d
Ġn am
ro s
ĠP arty
áŁģáŁĩ âĢĭ
Ġ1 5
ce pt
Ġst ill
Ġwh at
áŀĩáŀĵ áŀģ
and s
áŁ¡áŁ ¤
ĠV is
Ġse ason
pp er
Ġch ar
igh ts
Ġcont ro
Ġim port
Ġprov inces
Ġpla ce
Ġspe ech
use um
áŁ¡áŁ©áŁ ©áŁ
Ġele ction
Ġclass ical
cial ly
Ġgaller ies
Ġins cript
Ġconsid ered
omet imes
Ġsty le
Ġestab lished
Ġap pe
Ġeth nic
" )
1 0
S i
S BN
a h
f t
g es
m s
r ated
u nd
u ter
u ary
x t
á ¹
Ġ áŀĺáŀĢ
áŀĢ áŀĲ
áŀĦ áŀļáŀĶáŀŁ
Ġt en
in es
áŀĸ áŀĩ
re ated
áŀĤ áŀĶ
áŀľ áŀļ
áŀľ áŀĬ
áŀľ áŀĤ
at ic
Ġs cript
Ġs ometimes
Ġc ou
Ġc our
ed ia
or od
áŀ¢ áŀĶ
Ġf ive
Ġp ar
Ġp ur
Ġp red
as h
Ġd ry
ĠC o
ĠC ult
Ġre fer
Ġe qu
Ġe ither
ĠA ng
áŁī áŀ¼
ĠP re
Ġ1 0
Ġ1 3
ra v
us ed
áŀļáŀĳ áŀĽ
Ġcon nect
ĠI SBN
ĠáŀŁ áŀł
ĠM on
Ġde v
Ġsu g
ang k
Ġr u
pe cially
áŀĦáŀ¢ áŀī
Ġáŀĳ áŀĵ
ĠCh am
Ġle g
Ġle vel
Ġne ar
Ġne igh
ĠáŁ¡áŁ©áŁ ¦
Ġ201 8
Ġhe l
Ġhe ad
ĠO ld
Ġper form
ard s
áŀ§ áŀŁ
Ġy ou
Ġtour ist
Ġspe ak
Ġ202 3
áŀļáŀ¢ áŀĹ
Ġ9 78
Ġinv ol
iver s
Ġdevelop ment
Ġthrough out
Ġag ain
ĠPro v
Ġam ong
ĠJapan ese
Ġvisit ors
ĠâĢ ľ
ros s
Ġneigh b
2 00
i o
l anguage
o ot
p ar
p ir
t le
y ing
Ġ áŀĴ
Ġ áŀĩáŀĵáŀĩ
Ġ ident
áŀĵ áŀĻ
áŀļ áŀ¢áŀĵ
áŀĢ áŀİ
áŀĢ áŀ¡
áŀŁ áŀľáŀı
áŀŁ áŀļáŀŁ
áŀı áŀĢáŀĺ
Ġt ak
Ġa ge
áŀĽ áŀĽ
áŀĽ áŀł
áŀĽ áŀļáŀĶáŀŁ
áŀĸ áŀģ
áŀĻ áŀŁáŀĺ
áŀĻ áŀĺáŀĢ
áŁĭ -
áŀĬ áŀİ
áŁģ âĢĭ
áŁģ áŁĶ
re et
re ad
áŀħ áŀļ
áŀħ áŀģ
áŀħ áŀĴ
Ġo b
Ġo per
at ure
Ġs m
Ġs q
Ġs and
Ġs ame
Ġc e
Ġc er
Ġc ur
Ġc ra
en e
is sion
or ies
áŀ¢ áŀĴ
an n
Ġw ould
Ġf un
Ġb us
Ġp oin
Ġp aren
Ġm an
Ġm id
Ġm uch
ic ip
Ġd est
áŀł áŀĢáŀĺ
Ġh ig
ĠT ra
áŀķ áŀĦáŀĬ
Ġl angu
Ġl ake
ĠS is
ĠP al
Ġth ough
Ġbe gin
th or
ra h
Ġcon f
Ġst e
Ġst one
áŀĦáŀĶ áŀļ
id es
un icip
áŁĪ ,
ĠB att
iv ing
os p
os ition
Ġpro per
Ġde f
Ġan other
Ġr ural
Ġwor n
áŁ¡áŁ ¢
áŁ¡áŁ £
áŁ¡áŁ ¥
áŁ¡áŁ ¨
ab ly
ĠTh om
ĠN orth
ĠN orod
Ġus ing
ĠCh ak
Ġáŀ¢ áŀı
Ġcl imate
Ġ201 1
Ġcons ist
áŀ¥ áŀĳ
Ġinf rast
Cambodi an
Ġpartic ular
Ġbec ame
Ġbas ed
Ġrec ord
Ġcomp ounds
Ġdes ign
ĠKing dom
iz e
Ġfe atures
Ġest im
áŀĵáŀĢáŀŁ áŀī
Ġrelig ion
Ġking dom
Ġmark ed
Ġmajor ity
Ġwall s
Ġdialect s
Ġmin or
ĠCent ral
Ġmean ing
Ġwrit ten
Ġass oci
Ġdep ict
Ġes pecially
Ġhel p
ĠProv ince
ĠNorod om
Ġinfrast ruct
. )
/ .
E S
a x
a ve
b all
c k
c hed
e g
h ab
l ed
l Ã©
r odu
t al
u g
u is
u mer
Ġ Z
Ġ áŀļáŀĶáŀŁ
áŁ ©áŁ
áŀĵ áŀļáŀĢáŀĥ
áŀĢ áŀī
áŀĶ áŀľ
áŀŁ áŀĤ
áŀŁ áŀĲ
áŀĦ áŀļáŀĶ
áŀı áŀł
Ġa ut
áŀĽ áŀĦáŀĢ
áŀĩ áŀĵáŀĶ
áŀĻ áŀļáŀĶáŀŁ
áŁĭ )
er ation
on ial
Ġo pen
áŀĤ áŀħáŀĺ
áŀľ áŀħ
Ġs k
en g
al f
an ct
Ġw ill
Ġw ear
Ġf act
Ġb ord
Ġp at
áŀİ áŀĹ
ar k
Ġm et
Ġm yth
ion al
as ter
as tern
Ġd ra
Ġd aily
Ġto p
le g
áŀī áŀı
áŀī áŀķ
ĠC omm
Ġh uman
Ġre se
il ar
amb ang
Ġl ate
Ġe ast
st one
Ġn ow
ver y
em ent
Ġg round
áŀĵáŀĢ áŀĶ
áŀĵáŀĢ áŀĳ
áŀĭ áŀĴáŀĺ
Ġfor ces
ĠR ights
ap er
id ence
áŀĦáŀŁ áŀıáŀľáŀı
ĠáŁ¡áŁ ¦
ir d
Ġal though
ĠW h
ĠW ar
Ġv o
Ġan al
Ġk e
Ġsu bject
ong s
ore d
el f
and ard
Ġr ather
ure d
hn u
ort hern
ĠH uman
ĠN ew
Ġus ually
cl os
Ġse par
Ġne g
Ġ201 2
ĠO ther
ĠáŁł áŁłáŁł
ative ly
ĠAs s
Ġres ult
oth ing
Ġfollow ed
uc hea
act er
Ġri ver
Ġconst ruct
Ġph on
Ġele ments
ĠChin a
iz ed
Ġ197 5
Ġcult ural
ens us
Ġnum bers
Ġdevelop ed
Ġtrans l
Ġpl an
ĠDe velop
Ġear ly
ĠHindu ism
Ġnoun s
Ġvowel s
Ġimp ro
Ġinflu ence
ĠLa os
Ġgener ally
Ġemp lo
Ġphras es
Ġarm y
Ġpronoun ced
Ġeconom ic
Ġsout hern
Ġwom an
Ġspir its
ordin ate
Ġindust ry
Ġmonu ment
Ġdescrib ed
inist ry
ĠTour ism
ĠVis hnu
Ġchar acter
Si em
Ġyou ng
Ġsand stone
Ġlangu ages
ĠBatt ambang
Ġinfrastruct ure
0 7
4 0
6 3
9 0
A N
C O
S E
] ,
c ent
k a
k rit
s ive
v es
y lla
Ä ģ
Ê Ķ
ã Ģ
Ġ if
Ġ âĢĵ
áŀ ¦
áŀĢ áŀĴ
áŀĢ áŀŁáŀĺ
áŀĢ áŀ±
áŀĶ áŀĩ
áŀĶ áŀ¢áŀĦ
áŀĺ áŀļáŀĬ
áŀĺ áŀ¡
áŀŁ áŀĨ
áŀĦ áŀĶáŀĵ
Ġa v
Ġa ff
áŀĽ áŀľ
áŀĽ áŀŁáŀĺ
in k
áŀĸ áŀĢ
áŀĸ áŀļáŀĶáŀŁ
áŀĬ áŀĶ
áŀĬ áŀĳ
Ġthe m
re w
re ed
Ġo uter
âĢ Ŀ
at s
Ġs a
Ġs ide
Ġc ir
Ġc lear
is ation
it ial
it ual
Ġw ood
Ġf ur
Ġf ish
áŀ½ âĢĭ
Ġm ot
Ġm ount
Ġm ult
Ġm ove
Ġm ember
ic ed
Ġd et
Ġd ays
áŀĴ áŀĹ
Ġto tal
áŀī áŀĲ
od s
od y
Ġh ill
ĠT em
Ġl ow
Ġl ast
odi f
ĠA fter
ĠS e
ĠS ome
ĠS ans
áŁī áŁĦ
áŁī áŁĩ
ĠP h
Ġth reat
ur a
ur n
ch in
áŁĦáŁĩ áŁĶ
Ġg u
Ġg reat
Ġfor mer
Ġst ud
Ġst ress
im s
ter s
áŀĦáŀĢ áŀĦáŀĳ
ĠáŀŁ áŀĦ
op s
ect ed
ĠáŁ¡áŁ £
ĠB y
Ġor gan
ĠW hen
Ġde cl
áŀĽáŀĶ áŀĦ
Ġk il
áŁĬ áŁĤ
áŀļáŀł áŀĺáŀĶ
Ġr ul
Ġr un
Ġ19 5
Ġ19 60
ab ility
Ġex ist
pp ed
ĠCh an
Ġle ast
Ġint rodu
áŁ¤ áŁł
Ġhe av
áŁ¦ áŁł
Ġsh r
ard ed
av ing
cc ording
Ġrep la
Ġser ve
Ġres pect
áŀĶáŀŁ áŀļáŀŁ
ĠInd ia
Ġpla in
Ġev idence
Ġnew s
Ġpartic le
áŀļáŀ¢ áŀĶ
Ġrem ain
ack ed
Ġacc ording
Ġsur v
Ġconson ants
Ġac cess
Ġgrou p
áŀĩáŀĶ áŀĽ
Ġvar ious
Ġfl ood
Ġed ucation
ĠUN ES
Ġprodu ct
Ġposs ible
Ġdiffer ent
wor k
Ġsim ilar
Ġpub lic
Ġeff ect
Ġproject s
Ġsch ool
iqu e
Ġreport ed
rel iefs
Ġdistin ct
Ġsug gest
Ġparen ts
Ġestim ated
Ġpat tern
ĠDevelop ment
ĠSans krit
ĠUNES CO
2 2
6 2
b al
b ly
b les
b ably
i ri
i um
m at
m an
m ber
o v
p or
p aper
u es
w ard
áŀļ áŀ±
áŀĶ áŀĴ
áŀĺ áŀĽ
áŀĺ áŀĢáŀĺ
áŀĺ áŀŁáŀĺ
áŀĦ áŀ¢áŀĦ
áŀĦ áŀĪ
Ġt rib
áŀĽ áŀ¢
áŀĽ áŀĲ
in ed
in ation
áŀĳ áŀĦ
áŀĻ áŀĴ
áŀ· áŁį
áŁĨ âĢĭ
Ġthe at
on st
áŁģ áŁĴ
re ng
Ġs ac
Ġc os
Ġc uis
Ġc ensus
al th
Ġw ide
Ġf ri
Ġf ood
Ġp resent
áŀİ áŀĦ
Ġm aking
Ġd ro
Ġd own
áŀĴ áŀĩ
áŀĴ áŀŁáŀĹ
ent ial
Ġh ome
Ġh alf
il i
il k
il le
Ġl o
Ġl ab
Ġe mpire
ĠA y
ĠA ir
ĠA ust
ĠA pr
Ġn ative
Ġn umer
ĠP l
ĠP r
em ic
em bers
ol id
áŀĵáŀĢ áŀĵ
ĠThe y
ĠThe rav
ist er
ist ic
Ġst ory
Ġ2 1
Ġ2 2
ĠR es
áŀĦáŀĳ áŀĳ
est s
ĠáŁ¡áŁ ©áŁł
ad a
ay a
ay ana
iv en
áŁ¢ áŁ¥
res h
Ġal ways
ate ly
Ġpro g
Ġpro bably
Ġan n
Ġsu c
ĠF rom
áŁĬ áŀ¼
el s
el t
Ġ19 80
áŀĪ áŀĺáŀİ
áŀĵáŀĬ áŀĽ
Ġcom b
áŁ¡áŁ ¡
ical ly
Ġex ten
if ied
áŀĻáŀŁ áŀĦ
Ġha ving
ĠH er
ĠáŁ¢ áŁ¥
áŀĦáŀ¢ áŀĵ
ĠN ove
Ġle ar
Ġáŀĩ áŀĺ
áŀıáŀĺ áŀŁ
áŁ£ áŁ¥
ĠáŁ¡áŁ©áŁ ¨
Ġcl ust
Ġcl ose
Ġun ique
áŀĢáŀļ áŀĽ
Ġcont ribut
Ġrel ated
Ġrel ations
ĠO n
ĠO ct
áŀļáŀĹ áŀĸáŀĵ
Ġver y
Ġver sion
áŀ¯ áŀĢáŀļ
Ġro le
Ġres p
ĠInd o
Ġen clos
Ġtow er
Ġev ent
Ġ202 0
te nd
Ġpre ced
Ġ3 0
Ġbec ause
áŀĢáŀĩ áŀī
Ġrem ains
Ġj oin
áŀĦáŁĹ áŀĳ
iz ation
Ġqu ar
ĠáŁ¡áŁ©áŁ§ áŁł
Ġter rit
Ġsupp ly
Ġroyal ty
Ġmark et
ĠTon lÃ©
áŀļáŀ¡ áŀĶ
Ġhist ory
Ġinflu enced
Ġcla use
ĠáŁ¡ áŁł
Ġgener al
au gh
Ġocc ur
Ġocc up
ĠKamp uchea
ĠPar is
Ġphras e
Ġdecor ated
erv ation
Ġvilla ges
Ġau thor
ĠRo yal
Ġbuild ings
Ġsit es
Ġsurround ing
Ġsing le
rupt ion
Ġsm all
Ġbord er
Ġrese arch
SE AN
áŀ¦ áŀŁ
Ġcir c
Ġnews paper
Ġcos m
ĠApr il
Ġexten sive
ĠNove mber
1 1
8 4
9 8
A C
T h
] .
b ai
c o
d ed
e ad
f or
h as
i ers
m ed
n t
o e
o j
o ber
r ict
t c
t ing
t ic
w n
Ã ´
Ġ ,
Ġ áŀ
Ġ ur
Ġ áŀ¯
áŀ «
áŀĵ áŀĻáŀĢ
áŀļ áŀĺáŀĢ
áŀĢ áŀ§áŀı
áŀĶ áŀĽ
áŀĶ áŀĢáŀĺ
áŀŁ áŀľ
áŀĦ áŀĺáŀĵ
Ġt ake
Ġt imes
Ġa id
Ġa ir
he st
áŀĸ áŀĳ
áŀĸ áŀ¢
áŀĻ áŀĦ
áŀĻ áŀĶáŀĵ
áŀĻ áŀĴáŀĺ
áŀĻ áŀĺáŀĢáŀĸ
áŀ· âĢĭ
áŀ· áŁĶ
áŀĬ áŀĦ
áŀĬ áŀĬ
er ve
on y
on ed
re st
re ater
áŀħ áŀĸ
áŀħ áŁĹ
áŀĤ áŀĳ
áŀĤ áŀļáŀĵ
Ġs ou
Ġs ect
Ġs ix
Ġc a
Ġc over
Ġc rim
Ġc reated
ed ic
en ed
is hed
or ate
or row
áŀ¢ áŀĹ
Ġin ner
Ġw estern
Ġf em
Ġf la
Ġf ac
Ġf lo
Ġf inal
Ġf illed
Ġb l
Ġb ody
Ġp o
Ġp ri
Ġp ort
Ġp ost
áŀİ áŀĶáŀĢ
ar a
Ġm or
Ġm ass
Ġm ale
Ġm useum
Ġm ission
Ġm unicip
Ġm odif
am k
áŀ¶áŁĨ áŁĶ
as ed
áŀł áŀĶ
áŀł áŀĺ
áŀł áŀĹ
Ġto ok
le b
áŀī áŀŁ
ĠC ity
áŀļáŀĶ áŀĬáŀİ
áŁĥ áŁĶ
Ġre t
Ġre ce
il it
Ġl ife
Ġe p
ĠA d
ĠA SEAN
ĠS om
ĠS outh
ĠS ury
Ġn on
Ġn at
Ġth ous
Ġbe low
ol ar
Ġas pir
Ġg ram
Ġg iven
ra ce
ist ics
áŀļáŀĩ áŀĺ
Ġst rong
áŀļáŀĢ áŀĶáŀĬ
ĠR am
áŀĦáŀĢ áŀĢ
áŀĺáŀĢ áŀľ
id d
ĠM e
ĠM ay
un ched
op h
áŁĪ áŁĶ
est ions
ĠB angk
Ġ20 00
áŀĩáŀĵ áŀļáŀŁ
ment ed
Ġal leg
Ġan y
Ġan im
áŀĽáŀĶ áŀļ
our ces
Ġr ise
oc k
ĠáŁ¢ áŁ¦
áŀĮ áŀĽ
ac hed
Ġáŀĳ áŀĳ
Ġar ri
iet y
les s
ĠD aily
ĠRe p
Ġ201 3
Ġ201 9
low ing
Ġhe ld
ĠL e
Ġab and
Ġcont ain
áŀĦáŀļ áŀĻ
Ġinclud es
ord s
Ġtra vel
Ġcount ries
ie w
Ġad ver
Ġreg ular
Ġreg ime
og n
Ġro ad
áŀļáŀĤ áŀĽ
Ġmon so
Ġen c
Ġcap t
áŁ© áŁł
Ġtow n
Ġ202 5
ub lic
áŀĳáŀŁ áŀľáŀı
Ġpre v
Ġrem ained
Ġ9 5
Ġj ust
Ġ199 3
lo bal
Ġfe et
Ġent ire
Ġinter pre
ight ing
ific ation
Ġear li
Ġorigin ally
Ġcla uses
Ġrest oration
Ġserv ices
Ġconsid er
Ġbo at
ĠáŁ¨ áŁł
ĠMa ha
Ġdiv ided
Ġemp has
Ġincreas ed
Ġposs ess
áŀį áŀĵ
Ġmo at
Ġla w
Ġla unched
ĠUn ited
Ġpub lished
Ġhow ever
Ġbel ie
ĠSiam ese
Ġopp osition
Ġsent ences
Ġstat us
ae ological
Ġact iv
ĠMount ains
Ġdisp la
Ġinvest ment
Ġconc ern
Ġspec ies
Ġrigh t
Ġtro pical
Ġdam age
Ġimport ant
Ġinscript ions
Ġpur p
ĠPre ah
Ġdev at
Ġru le
Ġagain st
oot ball
Ġce leb
osp here
áŀĩáŀĵáŀĶ áŀĳ
anct uary
Ġanal ys
Ġconstruct ed
Ġfur ther
mat ical
Ġcuis ine
Ġlab our
Ġnumer als
ĠHer itage
ĠOct ober
ĠSury avarman
ĠBangk ok
" ).
0 5
2 4
9 5
S t
a z
a ËĲ
b ic
b ack
b ek
c ember
h u
i er
k raph
l ass
m ost
o f
o x
o y
o oth
t om
u ly
v is
v ille
y ers
Ë Ī
à ¥
à ¸
Ġ X
Ġ 60
áŀĵ áŀĦ
áŀĵ áŀļáŀĬ
áŀĵ áŀ²
áŀĢ áŀļáŀĬ
áŀĢ áŀĩáŀĵ
áŀĶ áŀ¢
áŀĺ áŀļáŀĶáŀŁ
áŀĺ áŁĹ
áŀĺ áŀ¯áŀĢáŀŁ
áŀŁ áŀģ
áŀı áŀ±
Ġt ax
áŀĳ áŀĶáŀĵ
áŀĸ áŀħ
áŀĻ áŀİ
áŀĻ áŀĪ
áŀĻ áŀļáŀĻ
áŀĻ áŀĤáŀı
áŁĨ áŁĶ
on or
on ment
áŀħ áŀİ
áŀĤ áŀļáŀĬ
áŀľ áŀĸ
áŀľ áŀķ
âĢĭ áŁĶ
Ġs he
Ġs qu
Ġc opul
Ġc ame
it ive
it te
áŀ¢ áŀĻ
Ġin itial
áŀģ áŀĹ
Ġf in
Ġf ar
Ġf ul
Ġf all
Ġf low
Ġf ash
Ġb an
Ġb ro
Ġp ot
Ġp ut
Ġm ust
Ġm edia
Ġm embers
ion ary
am es
am om
as e
Ġd ip
áŀĴ áŀĶ
áŀī áŀĢ
áŀī áŀ¢
ĠC E
ĠC hen
Ġh ous
áŀļáŀĶ áŀĵ
áŀļáŀĶ áŀī
ĠT o
ĠT rans
Ġre v
Ġre in
Ġre qu
ĠK amb
ĠK ul
Ġe astern
Ġe very
ĠA ccording
ĠS ur
ĠS ch
Ġn omin
ĠP o
Ġg ods
th aya
Ġ1 00
ri d
ri p
áŀĵáŀĢ áŀı
ul f
ĠáŀĬ áŀĦ
Ġfor ced
Ġst andard
ge nd
áŀļáŀĢ áŀĶ
áŀļáŀĢ áŀŁ
ĠR an
ĠR om
im ed
áŀĺáŀĢ áŀĵ
áŀĺáŀĢ áŀĳ
Ġon line
ĠM er
ĠM us
ad y
ot s
ot us
ut thaya
áŀĻáŀĢ áŀı
áŀĺáŀļ áŀİáŀĹ
ĠW ith
Ġpro f
Ġde pend
áŁłáŁł áŁłáŁł
Ġsu st
ĠF ooth
áŁĹ áŀĤ
áŁĬ áŁĴ
Ġr ate
Ġr ising
Ġáŀģ áŀİ
oc u
oc ks
Ġex t
ort heast
ous ly
ĠH e
ĠáŁ¢ áŁ¡
qu ial
Ġtem per
ac ks
áŀĵáŀĩ áŀĺ
Ġle ft
The re
áŀĦáŀħ áŀĺ
Ġcl othing
ant ly
ren t
Ġch ange
ran ch
ĠU S
Ġsh ort
Ġcont ex
Ġrel iefs
Ġrel atively
ard amom
áŀĤáŀļ áŀĴ
ĠáŁł áŁ¦
ĠBuddh a
ĠG ulf
Ġmost ly
Ġdis hes
Ġad ject
ĠJ uly
Ġser ved
Ġother s
overn ment
Ġfol k
Ġmon arch
ach ine
Ġpla ced
áŀŁáŀħ áŀļ
Ġtow ards
Ġme as
Ġme ans
Ġev en
Ġunder st
Ġ202 1
áŀļáŀ¢ áŀı
Ġj our
Ġbas ic
Ġrec ent
Ġrec ogn
Ġtradition s
ci ÉĻ
Ġ199 0
lo quial
Ġte am
Ġqu estions
ens ive
Ġstruct ures
Ġsylla bles
ĠáŁ¡áŁ©áŁ§ áŁ¥
Ã© a
Ġent er
Ġáŀķ áŀĽ
Ġter ms
ĠDe cember
Ġ8 0
Ġorigin al
ĠSihanouk ville
land s
ĠáŁ¡áŁ¨ áŁ¦
Ġserv ice
áŁ¢áŁł áŁ¡áŁł
Ġcommun ity
ib r
ĠKamp ot
Ġincreas ing
ne y
áŁ¡áŁ¡áŁ ¥
wor ks
Ġlead ing
áŀļáŀĹáŀĸ áŀĸ
áŁ¡áŁ©áŁ§ áŁł
Ġcontinu ed
áŀĽáŀĹ áŀĢ
omp an
Ġsurround ed
Ġindepend ence
Ġrigh ts
Ġtypical ly
Ġliter ary
ec ut
Ġáŀ§ áŀĳ
Ġdomin ated
Ġpar ts
Ġpred ic
Ġperform ed
Ġspeak ers
ivers ity
Ġneighb our
Ġob tain
Ġcer em
Ġfun ction
Ġhig her
Ġthough t
ĠChak kraph
Ġassoci ated
ĠComm itte
ĠWh ile
Ġimpro ve
reed om
Ġwood en
Ġdet er
chin a
Ġdecl ine
Ġkil omet
Ġintrodu ced
Ġshr ine
Ġtheat re
Ġsac red
ĠAy utthaya
ĠTherav ada
ĠIndo china
med i
Ġur ban
Ġfem ale
Ġthous ands
Ġgram matical
Ġaband oned
Ġprev ious
Ġcopul a
Ġfash ion
ĠFooth ill
ĠChakkraph at
ĠCommitte e
' ),
. áŁĶ
2 1
6 1
6 9
7 0
A s
M inistry
O n
P P
a f
c ers
d ucation
g y
h ar
h ib
i j
i atic
k h
l ike
l ife
m y
m ar
n ed
n ot
n ew
p ed
r ative
s c
s l
t i
u h
u ro
u ge
v al
v ir
v ong
w h
w ater
w ise
x ili
y ear
¦ áŁł
Ã §
Ã ª
Å Ľ
â Ĩ
Ġ ve
Ġ áŀľáŀĶ
Ġ áŀ¥
Ġ à¤
áŀĵ áŀĺáŀĢ
áŀĵ áŀĺáŀĵ
áŀĵ áŀĥ
áŀĵ áŀıáŀĺ
áŀĢ áŀķ
áŀĢ áŀļáŀĶáŀŁ
áŀĶ áŀĸ
áŀĺ áŀĻ
áŀĺ áŀķ
áŀĺ áŀļáŀĢ
áŀŁ áŀ¢
áŀŁ áŀĴ
áŀĦ áŀľáŀı
áŀĦ áŀ§
áŀı áŀĻ
áŀı áŀľ
áŀı áŀĺáŀĢ
áŀı áŀŁáŀĵ
áŀı áŀļáŀĵ
Ġt ree
Ġt able
Ġt urn
Ġa x
Ġa ver
áŀĽ áŀĦ
in et
in ess
áŀĸ áŀĤ
áŀĸ áŀĢáŀĺ
áŀĩ áŀŁ
áŀĩ áŀĢáŀĺ
áŀĩ áŀĸáŀĦ
áŀĩ áŀľáŀĦ
áŀĻ áŀľ
áŀĻ áŀļáŀĶ
áŀĻ áŁĹ
áŀ· áŁĩ
er y
áŀħ áŀļáŀĶáŀŁ
Ġo wn
áŀĤ áŀĬ
áŀĤ áŀĴ
áŀĤ áŀļáŀı
áŀľ áŀĽ
áŀľ áŀģ
at ter
Ġs on
Ġc ost
Ġc ities
Ġc are
Ġc ould
en es
en ous
en cy
is on
is es
or n
or ing
or ic
Ġof fer
Ġin hab
an or
Ġw ife
áŀģ áŀļ
Ġf a
Ġf ut
Ġf ire
Ġf arm
Ġf ather
Ġf resh
Ġf ighting
Ġb orrow
Ġp ra
Ġp ond
ar id
ou b
ing u
Ġm en
Ġm ok
ic i
ic y
ic ences
as ts
as ons
as iatic
Ġd ated
Ġd edic
Ġd ocu
Ġd oub
áŀł áŀļáŀİ
Ġto day
le t
ĠC ath
ĠC ons
ĠC ardamom
od a
ĠáŁ ©áŁ
Ġh ost
Ġh olid
áŀļáŀĶ áŀĦ
ĠT a
ct ed
Ġis s
Ġis ol
Ġl ist
Ġl ive
Ġl ines
Ġl iving
Ġl icences
Ġe at
ve y
st ation
ĠA l
ĠA ll
ĠS h
ĠS ite
ĠS amp
ĠS bek
Ġn ar
Ġn et
Ġn ood
Ġn uc
Ġn orm
ro g
ro asiatic
ĠP M
ĠP ol
ur m
em s
em ed
em bly
ol ars
ol lowing
Ġg o
Ġg op
Ġg ood
Ġ1 50
ce nd
ri k
ri al
ri age
áŀĵáŀĢ áŀĢ
ĠáŀĢ áŀŁ
ĠáŀĢ áŀĦáŀĳ
ĠáŀĢ áŀĦáŀĢáŀĺ
ul pt
ow ath
ow ever
Ġst art
áŀĦáŀĳ áŀŁáŀľáŀı
Ġwith out
ig enous
ap ed
ap pe
ĠM an
ĠM ad
ĠM arch
ĠM useum
ĠM ark
un an
op eration
est ival
ĠáŁ¡áŁ ¡áŁ
ir l
ot e
ĠB e
ĠB ank
áŁ¢ áŁ£
áŁ¢ áŁ§
Ġal ign
Ġal most
ĠW ay
Ġv i
Ġv ia
Ġv iew
áŀļáŀŁ áŀĸ
ĠAngkor ian
ĠF unan
áŀĻáŀĶ áŀĦ
el d
Ġr ange
Ġ19 8
áŀļáŀĺ áŀĳ
áŁ¡áŁ §
um e
áŀĵáŀĤ áŀļ
ĠH u
ĠH ist
ĠV i
ĠáŁ¢ áŁ£
ĠáŁ¢ áŁ¨
áŀĦáŀ¢ áŀı
ĠN orthern
Ġus es
Ġse en
ac y
Ġáŀļ áŀľ
Ġle gend
áŀĵáŀĳ áŀĺ
ĠD uring
ĠE ast
ĠE ducation
ĠE uro
ant e
áŀĺáŀĶ áŀİ
Ġch ang
Ġ201 4
Ġ201 7
Ġsy nt
Ġsh ared
Ġcont rast
ok s
ire d
Ġsp ort
Ġsp ouse
Ġsp ace
ard ing
áŀ§ áŀĬ
Ġver s
ian s
ag ed
ag az
ĠG lobal
Ġnot ed
Ġad ap
Ġad op
Ġreg ist
Ġreg arded
ild life
og raph
áŁ§ áŁł
Ġim medi
Ġprov ide
Ġprov ided
Ġspe cial
Ġtow ard
Ġfollow s
Ġme ant
Ġev ents
Ġpre p
Ġexp ress
Ġexp ressed
Ġexp ected
Ġ3 5
Ġform s
Ġform ed
Ġform al
Ġconst itut
Ġ200 2
Ġ200 4
Ġmain ly
ci ence
ĠAr ts
Ġatt ra
Ġatt ract
ons ible
Ġra in
Ġra il
Ġori ent
Ġsc enes
Ġsc ulpt
Ġdist ric
Ġstruct ural
Ġcol onial
Ġcol loquial
Ġinter rog
Ġloc ated
Ġco ast
Ġcomple te
Ġinst itut
Ġinst ead
Ġvis ited
Ġsecond ary
Ġac ross
Ġty p
Ġdif f
Ġrepresent ed
Ġcar ried
Ġnorth west
Ġvar i
hip s
ĠáŁ§ áŁ¥
Ġcommon ly
Ġlarge ly
Ġher itage
ĠPar k
Ġindic ate
Ġdem and
Ġref uge
Ġau xili
Ġsent ence
Ġwom en
Ġgar ment
ĠáŁ¡áŁ©áŁ©áŁ £
air s
Ġgrow ing
Ġdisc overed
Ġdisp ut
Ġder iv
Ġder ived
ĠáŁ¡áŁ©áŁ¥ áŁ£
Ġindepend ent
É¨ w
Ġprim ary
Ġnam ed
Ġnam es
Ġcontro l
áŁ¡áŁ©áŁ©áŁ £
Ġinscript ion
Ġappe ar
Ġcou p
Ġcour t
ĠCult ure
ĠCult ural
Ġleg al
Ġtak en
Ġtak es
Ġpoin t
ĠSis owath
ĠPal i
Ġbegin s
Ġproper ty
Ġrecord ed
ĠZ one
Ġtop ic
Ġsepar ate
ĠAss embly
Ġ195 3
Ġwide ly
Ġfri end
ĠAust roasiatic
ĠPr ince
Ġsuc cess
Ġenclos ure
Ġnat ural
ĠRam ayana
Ġadver bs
Ġearli er
Ġdevat as
Ġsqu are
Ġpot ential
ĠChen la
ĠKul en
ĠRan arid
ĠMer u
Ġdepend ing
Ġmonarch y
vir onment
Ġfut ure
ĠCath ol
ĠMark et
ĠEuro pe
agaz ine
Ġimmedi ately
Ġdistric ts
Ġauxili ary
ĠRanarid dh
% áŁĶ
0 3
3 2
7 2
9 3
A d
B uddh
I C
P M
] ).
a w
a res
a el
b and
c le
c ity
c omm
d ing
d iv
d own
e f
g ed
g rim
h ot
h old
i osphere
j un
k nown
l ig
l ict
m it
n al
n ers
n uh
o ly
p ly
p Ê°
p arty
r ist
r ang
r one
r ame
r atives
r ban
s on
t on
t Ê°
t led
u ated
u pp
v a
w ing
w ent
w ell
w estern
Ã ī
Å Ń
æ Ĺ
Ġ *
Ġ -
Ġ 0
Ġ Q
Ġ |
Ġ áŀĦ
Ġ áŀ±
Ġ 50
ĭ (
áŀ¶ )
áŀ¶ -
áŀĵ áŀļáŀĶ
áŀĵ áŁĹ
áŀĵ áŀļáŀı
áŀĵ áŀĻáŀĵ
áŀĵ áŀļáŀĦ
áŀĵ áŀĽáŀĢ
áŀĵ áŀĩáŀĵáŀĩ
áŀĵ áŀĺáŀĢáŀĸ
áŀļ áŀī
áŀĢ áŀĢáŀĺ
áŀĢ áŀĨ
áŀĢ áŀļáŀİ
áŀĶ áŀķ
áŀĶ áŀļáŀĳ
áŀĺ áŀī
áŀĺ áŀļáŀĶ
áŀĺ áŀĨ
áŀĺ áŀĪ
áŀĦ áŀļáŀĩ
áŀı áŀ²
Ġt ar
Ġt ies
Ġt one
Ġt aking
Ġa ch
Ġa ud
he l
he m
he w
he y
áŀĽ áŀİ
áŀĽ áŀĨ
áŀĽ áŀĶáŀĵ
áŀĽ áŀĥ
in c
áŀĳ áŀĢ
áŀĸ áŀļ
áŀĸ áŀľ
áŀĸ áŀł
áŀĻ áŀľáŀı
áŀĻ áŀĺáŀĵ
áŀĻ áŀĵáŀĤ
áŀĻ áŀ²
er ies
er gy
on es
on al
áŀħ áŀķ
áŀħ áŀļáŀİ
Ġo pt
áŀĤ áŀŁ
áŀľ áŀł
áŀľ áŀĢáŀĺ
at a
at ory
Ġs l
Ġs la
Ġs un
Ġs old
Ġc ul
Ġc ate
Ġc ru
Ġc amp
Ġc overed
en n
áŀ¼ áŁĶ
or ial
or vong
it i
it ud
al es
Ġin j
Ġin tern
an ak
Ġw on
Ġw et
Ġf il
Ġf ig
Ġf av
Ġf ind
Ġf estival
Ġf rame
Ġb ound
Ġb ene
Ġb ranch
Ġp il
Ġp ast
Ġp ress
áŀİ áŀĵ
áŀİ áŀĩ
áŀİ áŀģ
ar ily
Ġm ake
am a
am ent
ic ult
ic ks
Ġd i
Ġd en
Ġd id
Ġd ict
Ġd ates
Ġd augh
áŀĴ áŀĤ
áŀī áŀĤ
áŀī áŀļáŀĶáŀŁ
áŀī áŀľáŀı
áŀī áŀ±
ĠC on
ent ion
Ġh us
Ġh im
Ġh ot
Ġh and
Ġh ub
Ġh old
áŀļáŀĶ áŀļáŀĳ
ĠT ower
ĠT reng
Ġre con
Ġre new
ĠK h
ĠK rom
ĠK ore
Ġl ay
Ġl os
Ġl ower
Ġl ibr
Ġe c
Ġe tc
st itut
ĠA t
ĠA ff
ĠA ug
ĠS re
ĠS ince
ĠS anctuary
áŁī áŁĥ
Ġn ortheast
ĠP ub
mer cial
ly ing
Ġth ird
Ġth rone
¡áŁ £
ur i
ur ally
ch n
ol es
Ġas pect
Ġg en
Ġg reater
Ġg irl
th s
th ongs
áŀļáŀĬ áŀĽ
ce ed
áŀĵáŀĢ áŀĴ
áŀĵáŀĢ áŀħáŀĺ
us s
ul ts
áŀļáŀĳ áŀĶ
áŀļáŀĳ áŀĺ
Ġcon qu
Ġcon dition
ĠI ts
Ġst ability
Ġst rik
ĠáŀĶ áŀĦ
ĠáŀĶ áŀİ
áŀĦáŀĶ áŀī
áŀĺáŀĢ áŀł
ap e
id ing
ĠM inistry
ĠM idd
ĠM achine
áŀĦáŀŁ áŀł
áŀĦáŀĵ áŀĻ
her s
ad es
ĠB urm
ay avarman
áŁ¢ áŁ¡
áŀĻáŀĢ áŀŁ
áŀĻáŀĢ áŀĳ
áŀĩáŀĵ áŀĹ
ĠW estern
ĠW ildlife
áŁį âĢĭ
Ġv oc
Ġv ast
Ġde g
Ġde fore
áŀıáŀĵ áŀĤ
áŀĽáŀĶ áŀĺ
Ġsu per
áŁĹ áŀĳ
áŁĹ áŀĩ
áŁĹ áŀĬ
áŁĬ áŀ·
Ġr out
Ġr itual
Ġ19 50
Ġ19 07
ak es
áŀĪ áŀĶ
áŀļáŀĺ áŀĸ
áŀļáŀĺ áŀİ
Ġcom mercial
Ġwor ks
ab inet
oc ene
Ġex per
Ġex ecut
rou p
ĠH owever
ill ing
ĠáŁ¢ áŁ¤
ĠáŁ¢ áŁ©
ĠN ang
ĠN ations
cl us
ac qu
áŀĻáŀĺ áŀĶ
Ġcent er
Ġcent re
Ġle x
Ġle ave
Ġle aving
Ġne ver
Ġáŀĩ áŀĶ
áŀıáŀĢ áŀİ
Ġar ts
áŁ£ áŁ¡
áŀļáŀľ áŀĺ
ĠáŁ¡áŁ©áŁ ¤
áŀĵáŀħ áŀĺ
se e
se qu
Ġcl os
Ġcl osed
ĠE x
ant ed
Ġint ens
áŁ¤ áŁ¡
ĠRe amk
ult ural
Ġ201 5
Ġu pper
áŀ»áŁĨ -
Ġun ivers
ĠU rban
Ġits elf
Ġcont ains
Ġcons ists
Ġper m
av a
áŀ§ áŀĳ
ĠáŁł áŁ¥
ag ue
ĠG e
áŀħáŀĢ áŀİ
áŀĽáŀŁ áŀĦ
Ġdis h
Ġad j
Ġad min
ĠJ ayavarman
Ġro om
Ġind igenous
ff icial
Ġim ages
áŁ¨ áŁł
áŁ¨ áŁ¦
áŀĻáŀĩ áŀĺ
Ġpe ace
Ġpe pper
Ġmon ks
ĠInd ex
áŀŁáŀħ áŀļáŀ¢áŀĵ
Ġen vironment
Ġen ergy
Ġmar ried
ph ant
Ġ202 2
Ġpartic ip
te ËĲ
áŀľáŀĺ áŀİ
Ġ200 6
Ġ200 7
Ġmain tain
Ġcomp ared
Ġtradition ally
áŀĦáŁĹ áŀĬ
Ġoff ers
ĠAr my
Ġ199 8
Ġra ised
Ġte a
Ġte chn
Ġpol ite
Ġpol icy
Ġfe w
Ġfe ature
Ġacc ompan
Ġqu ality
áŀĵáŀĹ áŀŁ
Ġsc am
ĠSout hern
Ġcol la
Ġwork ers
ĠáŁ¡áŁ©áŁ§ áŁ£
Ġtrans ition
Ġtrans port
Ġfam ous
áŀĶáŀĢ áŀļáŀİ
Ġter m
ĠSt ung
Ġarchitect s
Ġpl os
Ġcomple ted
Ġout side
Ġinst ru
Ġear th
Ġpos ition
áŁ¢áŁłáŁł áŁ§
áŀŁáŀĢ áŀĢáŀĺ
Ġdo es
Ġdan cers
ĠáŁ¡ áŁłáŁł
ĠLa o
Ġalong side
min es
ram a
ram me
Ġfl ed
ĠPe ace
Ġed uc
Ġlit tle
ĠAn other
Ġprodu ced
Ġdecor ative
Ġdiffer ences
Ġprotect ion
Ġprotect orate
áŁ¡áŁ¡áŁ ¡áŁ£
ĠUn iversity
Ġindic ates
Ġestab lish
Ġpronoun s
Ġset tle
Ġsign ific
Ġdem onst
Ġeff orts
Ġbel iefs
Ġvilla ge
Ġshow s
Ġgra d
Ġgra nd
oci ation
Ġbuild ing
ribut e
Éĳ ËĲ
ĠY ear
Ġpract ices
lect ed
Ġgrow th
Ġsub div
Ġliter ature
ec ause
Ġtro ops
Ġcontro ll
á¹ £
á¹ ĩ
Ġpred omin
Ġrefer red
ĠCham s
Ġinvol ved
Ġneighb ors
Ġident ified
Ġbus iness
Ġhig hest
ĠChak tom
Ġconsist ing
Ġparticular ly
Ġmet res
Ġvo iced
Ġke y
ĠAss ociation
ylla bic
ãĢ Ĭ
ãĢ ĭ(
Ġmot if
Ġmount ain
Ġmount ains
Ġmove ments
ĠTem ples
Ġheav ily
Ġrepla ced
Ġflood ing
Ġtrib es
Ġdro pped
ĠAir port
ĠPl an
Ġclust ers
Ġresp onsible
áŀ« áŀĳ
Ġsect or
Ġca used
Ġfla g
Ġbl ocks
Ġport ra
Ġmor ph
Ġmunicip ality
Ġrece ived
ilit ary
Ġaspir ation
Ġalleg ed
ĠRep ublic
Ġcapt ured
ĠáŁ¨áŁł áŁ¢
Ġpossess ive
Ġbelie ved
Ġactiv ity
Ġconcern s
Ġpurp ose
vis ion
onor ific
Ġful ly
ĠSch ool
ĠMus l
Ġtemper atures
Ġcontex t
Ġmeas uring
Ġjour ney
Ġenter tain
áŁ¡áŁ¡áŁ¥ áŁł
Ġkilomet res
âĨ Ĺ
Ġaver age
Ġfresh water
Ġpond s
Ġdedic ated
Ġholid ays
ĠSamp ot
Ġgop ura
ĠWay back
Ġvi ol
ante ay
Ġsynt act
Ġregist ers
Ġsculpt ures
Ġinterrog ative
Ġtyp es
Ġrefuge es
Ġfriend s
æĹ ¥
Ġtar get
Ġcul min
Ġcate g
Ġpil grim
Ġrecon st
ĠAug ust
ĠMidd le
Ġdefore station
ĠReamk er
Ġadmin ist
Ġsubdiv ided
ĠChaktom uk
" ),
% )
. "
. -
. ",
0 1
0 9
1 2
1 3
1 4
1 6
2 5
3 0
3 1
3 9
4 6
6 8
7 1
7 4
8 6
A R
A l
A r
A fter
C L
C h
D uring
E C
F E
F reedom
H igh
I D
I I
I N
K amb
M ap
O ri
O ther
O pen
S ince
] )
a ur
b y
b ing
b ap
c om
c if
c av
c ultural
d u
f e
g er
g ing
g ers
h um
h bap
i h
i or
i ence
i eld
j a
k ing
k Ê°
l it
m ine
n É¨
o b
o o
o id
o ice
o ister
p ts
p se
p ond
p orts
r is
r Ãª
s a
s h
s hip
s ylla
t a
t ation
t ations
u y
u ation
v ings
v ij
w ith
x im
y ment
y pical
Ġ áŀļáŀł
Ġ Ãī
áŀ ª
áŀ Ŀ
áŀ¶ ,
áŀĵ áŀ¢áŀĦ
áŀĵ áŀŁáŀĵ
áŀĵ áŀĦáŀĩ
áŀĵ áŀ±
áŀĵ áŀĸáŀĦ
áŀļ áŀĻáŀĸ
áŀļ áŀ²
áŀļ áŀĺáŀĢáŀĸ
áŀĢ áŀĻ
áŀĢ áŀĶáŀĵ
áŀĶ áŀĹ
áŀĶ áŀ¡
áŀĶ áŀĦáŀĵ
áŀĶ áŀļáŀĺ
áŀĺ áŀĩáŀĵáŀĩ
áŀŁ áŀİ
áŀŁ áŀī
áŀŁ áŀĢáŀļ
áŀĦ áŀĦ
áŀĦ áŀĥ
áŀĦ áŀ±
áŀĦ áŀĽáŀĢ
áŀĦ áŀĻáŀĽ
áŀĦ áŀ¬
áŀı áŀĨ
Ġt it
Ġt ell
Ġt reat
Ġt onal
Ġa mb
Ġa way
he ng
áŀĽ áŀĻ
áŀĽ áŀĺáŀĢ
áŀĽ áŀĺáŀĵ
áŀĽ áŀļáŀŁ
áŀĽ áŀ¢áŀŁ
in ing
in ations
in ox
áŀĳ áŀĬ
áŀĳ áŀŁáŀĺ
áŀĳ áŀĻáŀŁ
áŀĸ áŀĺ
áŀĸ áŀĸ
áŀĸ áŀİ
áŀĩ áŀľ
áŀĻ áŀĥ
áŀĻ áŀĴáŀĵ
áŁĭ (
áŀĬ áŀĦáŀļ
er al
er ved
on om
on ation
on ents
re g
re en
re qu
áŀħ áŀĦ
áŀħ áŀł
áŀ¸ ,
Ġo ust
Ġo bs
áŀĤ áŀĸ
áŀĤ áŀĩ
áŀĤ áŀļáŀĶ
áŀĤ áŀĺáŀĢ
áŀĤ áŀļáŀĺ
áŀĤ áŀıáŀŁ
áŀĤ áŀ¦áŀŁ
áŀĤ áŀİáŀĶáŀĢ
áŀľ áŀ¢
áŀľ áŀ¢áŀĦ
at ors
Ġs il
Ġs em
Ġs our
Ġs ilk
Ġc re
Ġc oun
Ġc ard
Ġc rit
Ġc row
Ġc ause
ed s
ed eration
en a
is c
is ans
or ge
or cy
or por
it ing
it ted
it ants
al ities
an c
an e
an uary
Ġw at
Ġw ay
Ġw rest
áŀģ áŀĵ
áŀģ áŀĩ
áŀģ áŀľ
áŀģ áŀļáŀĬ
Ġf er
Ġf ra
Ġf oc
Ġf ru
Ġf ell
Ġf und
Ġf ootball
Ġf requ
Ġb al
Ġb om
Ġb ill
Ġb rough
Ġb uses
Ġb ank
Ġb ring
Ġb ird
Ġp rom
Ġp upp
áŀİ áŀĶ
áŀİ áŀŁ
ar les
ar ian
ou hot
Ġm ut
Ġm ÉĶ
Ġm ilitary
am ily
om ing
om est
Ġd r
Ġd ri
Ġd ate
Ġd omest
áŀĴ áŀĢ
áŀĴ áŀĳ
áŀĴ áŀĬ
áŀĴ áŀĴ
áŀĴ áŀł
áŀĴ áŀĳáŀĵ
Ġto get
le y
le ts
le ction
le vel
le vision
áŀī áŀļ
ĠC ong
ĠC PP
od e
áŀ¹ áŁĩ
Ġh ab
Ġh osp
ĠT e
ĠT ech
ĠT ypical
ct ares
Ġre ver
Ġre ached
il ing
il ities
ĠK rong
amb od
Ġl im
Ġl ives
Ġl otus
Ġl atter
Ġl asts
Ġe l
Ġe mb
Ġ( [
ĠA D
ĠA m
ĠA ge
ĠS ar
ĠS ere
ĠS ub
ĠS uch
áŁī áŁĴ
Ġn ation
Ġn orthern
ĠP on
ĠP ress
ur s
ur as
ur ice
ch a
ch Ã©a
em ble
em ents
ol k
ol st
ol ved
Ġg old
Ġg ained
th a
th at
ĠKhmer s
ce an
áŀĵáŀĢ áŀĩ
áŀĵáŀĢ áŀĹ
ra cy
áŀĵáŀĶ áŀĺ
áŀĭ áŀĵ
áŀĭ áŀĹ
áŀĭ áŀĢáŀĺ
ul k
ul ated
et itive
ow s
ow ers
áŀļáŀĳ áŀĳ
Ġcon ver
Ġcon cept
Ġcon jun
Ġcon du
Ġfor t
Ġst re
Ġst ar
Ġst op
Ġst reet
Ġst reng
Ġ2 4
áŀļáŀĢ áŀı
áŀļáŀĢ áŀħ
ĠR el
la red
la ize
ĠáŀĶ áŀī
áŀĦáŀĢ áŀĦáŀĢáŀĺ
áŀĦáŀĶ áŀĦ
áŀĺáŀĢ áŀĩ
ap p
ap ital
id a
id ity
ĠM al
ĠM ar
ĠM ic
ĠM ost
ĠM any
ĠM ond
un e
un ist
ĠáŁ¡áŁ §
ĠáŁ¡áŁ ©
ad ow
ad ium
ot hes
ĠB C
ĠB o
ĠB ay
ĠB rah
ĠB elt
ĠB ecause
ĠB anteay
iv ong
áŁ¢ áŁ¤
áŀĻáŀĢ áŀĦáŀĳ
áŀĻáŀĢ áŀĦáŀĢáŀĺ
res pond
ud ong
áŀĺáŀļ áŀĹ
áŀĩáŀĵ áŀĵ
áŀĩáŀĵ áŀĳ
áŀĩáŀĵ áŀĬ
os es
Ġáŀĺ áŀł
Ġv al
Ġv ary
Ġv ict
Ġpro p
Ġpro s
ial s
oun ced
áŀĽáŀĶ áŀİ
áŀĽáŀĶ áŀī
Ġk illed
Ġsu ff
ĠF ore
áŀĻáŀĶ áŀħ
áŁĬ áŀ¶
and al
Ġr at
Ġr ank
Ġr icks
Ġ19 4
Ġ19 62
áŀļáŀĸ áŀĶ
Ġwor ship
oc racy
Ġex cept
Ġex tend
if y
if ying
um ed
áŀĵáŀĤ áŀļáŀĵ
áŀĵáŀĤ áŀļáŀľáŀı
ĠH en
áŀıáŀŁ áŀī
ĠTh ree
ĠTh rough
ĠN ath
cl es
Ġse c
Ġse x
Ġse at
ac ent
ac uated
áŀļáŀİ áŀ«áŀĳ
áŀĦáŀĬ áŀĽ
pp ing
ĠCh ong
ĠCh rist
ĠCh hbap
ĠCh arles
Ġle av
Ġáŀ¢ áŀĩ
áŀıáŀĺ áŀł
ĠIn t
áŁ¡ áŁłáŁł
áŀĦáŀĺ áŀł
áŀĽáŀĵ áŀĻ
áŁ£ áŁł
Ġcl oister
ĠD em
ĠD iv
ĠD vij
áŀĺáŀĶ áŀī
Ġint end
Ġint onation
over y
áŁ¤ áŁ£
áŁĬáŀ¸ âĢĭ
ult ure
ult ane
Ġ201 6
pt ember
ran Ã§
Ġhe alth
Ġhe ctares
áŀ»áŁĨ âĢĭ
ĠL ong
Ġun known
ĠU pper
Ġab uses
Ġsh ould
Ġrel atives
Ġcons ervation
ĠO ne
ĠO pen
Ġpart y
ire ction
áŀĵáŀļ áŀĻ
Ġsp read
av il
áŀ§ áŀŁáŀĹ
áŀ§ áŀĶáŀĢáŀļáŀİ
ust om
áŀ¯ áŀĦ
áŀ¯ áŀĢáŀĩáŀĵ
ĠáŁł áŁ£
ĠáŁł áŁ©
ĠG u
ĠG er
ĠG ames
ĠG overnment
ĠG roup
Ġy et
dition al
Ġtra in
Ġtra de
ie ces
Ġdis s
Ġdis appe
Ġad ded
Ġreg ions
ip et
mp ÅŃ
ĠJ o
ĠJ anuary
ĠJ une
Ġro of
Ġind irect
áŀ¥ áŀ¡
áŀĻáŀĽ áŀĦ
ress ing
Ġinf orm
Ġres ources
Ġres ults
Ġmon k
Ġprov iding
Ġcomm itted
ind s
Ġpla y
Ġpla ces
Ġpla yed
bs ite
Ġen s
Ġgovern or
Ġgovern ments
Ġmar riage
amp les
Ġev il
Ġev acuated
Ġunder g
Ġ202 4
te g
Ġpre c
Ġexp l
Ġrem n
Ġ9 0
Ġj ew
Ġri vers
Ġri val
áŀĢáŀĽ áŀľ
Ġ200 1
Ġ200 5
Ġ200 8
Ġ200 9
ik ka
Ġbas e
Ġph ot
ĠáŁ£ áŁł
ĠáŁ£ áŁłáŁł
ĠáŁ£ áŁ¥
Ġcomp ound
Ġcomp osed
áŀĸáŀĽ áŀļáŀĬ
Ġdes cend
Ġele phant
áŀĦáŁĹ áŀĵ
Ġ199 2
Ġ199 7
Ġatt em
Ġatt acked
Ġatt ached
Ġatt acks
áŀĺáŀĬ áŀĦáŀķ
Ġra cing
Ġte x
Ġte ach
Ġte levision
ess ion
Ġpol ice
Ġ197 9
Ġarch aeological
lic ation
Ġacc ount
Ġacc omm
Ġcult iv
Ġsc ale
Ġclass ification
Ġcol l
Ġdec lared
Ġwork ing
ĠáŁ¡áŁ©áŁ§ áŁ©
ha w
Ġent rance
Ġáŀķ áŀĦáŀĬ
Ġfound ed
Ġfound ation
ĠSt ates
Ġarchitect ural
Ġco ff
Ġinc orpor
ific ations
Ġ8 6
ĠSen ate
Ġ18 63
Ġac res
ĠPro t
áŁ¢áŁłáŁł áŁł
áŁ¢áŁłáŁł áŁ¤
Ġorigin ated
áŀıáŀķ áŀĦ
áŀıáŀķ áŀĽáŀŁ
Ġup on
Ġrepresent ing
Ġrepresent ation
Ġcar vings
Ġimp act
ĠáŀļáŀĶ áŀĶáŀĵ
Ġcla imed
ĠáŁ¢áŁłáŁł áŁ¤
ĠáŁ¢áŁłáŁł áŁ§
ĠLa w
Ġserv es
Ġofficial s
Ġofficial ly
20 11
Ġpers ons
Ġland mines
áŁ¢áŁł áŁ¡áŁ¡
Ġvar iety
ix es
ĠCent ury
Ġcommun ists
Ġobject s
Ġcor ner
Ġcor ruption
Ġwe ak
Ġhigh ly
ĠKamp ong
ĠMa urice
Ġforest s
Ġdiv is
Ġdiv ine
Ġincreas e
Ġindic ated
Ġsymbol ic
Ġ7 0
Ġset s
Ġvilla gers
Ġlead er
Ġlead ers
Ġshow ing
áŁ¡áŁ©áŁ§ áŁ©
Ġeconom y
end ra
li ament
Ġsch olars
Ġsout heast
ĠRo ad
ival ent
ĠáŁ¢áŁł áŁ¡áŁ£
ĠáŁ¡áŁ©áŁ©áŁ §
ĠáŁ¡áŁ©áŁ©áŁ ¨
Ġspir itual
Ġsupport ed
Ġcontinu ous
Ã¢ mpÅŃ
ĠY outh
Ġinvest ig
ron t
ven ir
Ġpass ed
Ġpass eng
áŀĵáŀĢáŀĬ áŀĦ
Ġconc ent
Ġdeath s
Ġindust rial
Ġmonu ments
Ġspec ific
Ġdistin ction
ÉĶ ËĲ
Ġcas e
Ġprim arily
Ġred up
Ġappe al
ĠáŀĺáŀĢ áŀļ
Ġcou ple
ash ing
Ġequ inox
Ġequ ivalent
Ġconnect ing
áŀĦáŀ¢áŀī áŀĤ
Ġleg acy
Ġnear by
ĠáŁ¡áŁ©áŁ¦ áŁ©
Ġspeak er
Ġident ity
reet Map
Ġob lig
Ġoper ating
Ġcur ry
Ġcur rent
Ġcra b
ann ikka
Ġdest inations
ĠTra vel
Ġbegin ning
Ġste ps
Ġdef e
Ġminor ity
Ġdepict ing
áŁ©áŁ ¨
Ġaut onom
Ġwear ing
Ġfact o
Ġmet ers
ĠWh ite
Ġresult ed
Ġtransl ated
Ġcharacter istics
Ġav ail
Ġav oid
Ġaff ect
Ġsa w
Ġmot orcy
ĠTem ple
ĠSe ptember
Ġrul er
Ġrun ning
Ġrespect ively
Ġsurv ived
Ġeffect ively
Ġpattern s
Ġdro p
Ġlo an
Ġprog ramme
Ġann ual
Ġann ounced
Ġcomb ination
Ġlear n
Ġclust er
Ġcontribut ed
Ġrelations hips
Ġevent ually
Ġpreced ing
Ġterrit orial
Ġoccup ation
Ġoccup ied
Ġcosm ological
Th is
Ġsou venir
Ġcover s
Ġcrim es
Ġflo ating
Ġmission aries
oph on
Ġmonso on
Ġmonso ons
Ġconsider able
Ġceleb r
Ġceleb rated
Ġanalys ed
St reetMap
Ġtax i
Ġfin an
Ġflow ers
Ġdip h
Ġhous es
ĠKamb u
Ġnomin al
ĠPo ipet
áŀļáŀĢáŀĶ áŀļáŀĶ
ĠWith in
Ġsust ained
Ġunderst ood
ciÉĻ Åĭ
ĠáŁ¡áŁ¨áŁ¦ áŁ£
Ġincreasing ly
Ġneighbour ing
sl am
Ġmok ot
Ġdoub t
ĠCons ervation
Ġlist ed
Ġeat en
ĠMan et
Ġview ed
ĠVi á¹£
Ġadap ted
Ġorient ation
Ġinstitut ions
Ġdiff icult
Ġvari ations
ĠCathol ics
Ad ject
ĠQ u
Ġach ie
hem es
Ġcru cif
iti ative
Ġintern al
Ġfig ures
Ġhus band
Ġrenew able
ĠKore a
ĠAff airs
ĠBurm ese
Ġrout e
Ġlex ical
Ġperm its
ĠGe orge
Ġadj acent
Ġenvironment al
Ġeduc ated
Ġsignific ant
Ġpredomin antly
Ġmotif s
Ġmorph ology
Ġentertain ment
Ġcateg ories
Ġpilgrim s
Ġadminist rative
Open ed
Ġoust ed
Ġcard inal
Ġcause way
Ġbill ion
Ġbrough t
Ġpupp et
Ġtoget her
Ġhosp ital
ĠBay on
respond ing
Ġrank ed
Ġricks haw
Ġleav es
ĠDvij endra
Ġintend ed
ĠOpen StreetMap
Ġinform ation
Ġaccomm od
Ã¢mpÅŃ chÃ©a
Ġautonom ous
ĠViá¹£ á¹ĩ
Ġcrucif orm
' ,
' ).
. )áŁĶ
/ ;
3 3
3 4
3 5
3 00
4 3
4 9
5 6
7 5
7 9
8 5
9 9
A P
A ccording
C om
D e
E xt
F C
F rom
F ollowing
L O
M ost
N ang
N ew
O V
O fficial
P ro
S ome
S AR
T ra
T AC
U N
V O
W h
W hen
a ign
a ff
a ise
b on
b re
b es
b Éĳ
b orn
b uri
c er
c ar
c ol
c ue
c hes
c ross
d a
d i
d ar
d ic
e e
e o
e y
e ur
e ap
e ast
e ograph
f rom
f ect
f ive
f ts
f act
f inal
g red
g overnment
h ist
h ind
h ayana
i ent
i ences
i ents
i oration
k et
l om
l eng
m a
m on
m ot
m aking
m ark
m osphere
n s
n est
n ast
n ac
n ess
o is
p l
p ers
p ura
p hemes
r ation
r ul
r ity
r atic
s ar
s et
t ly
t wo
t here
t uk
t É¨w
u on
u ed
u et
u ity
u ese
u ced
u bs
u ÉĻj
u aries
v an
v ol
v ate
v als
v ana
v ann
w here
w are
w ords
y le
y stem
y tic
y nast
z ed
z en
¡ áŁł
¨ áŁ¡
³ n
Ã ¡
Ã ³n
Ä «
É ¡
É ĵ
ã Ĥ
å ł
Ġ :
Ġ =
Ġ x
Ġ áŀ¶
Ġ áŀī
Ġ áŀ¡
Ġ áŀĭ
Ġ ut
Ġ áŀĴáŀĵ
Ġ ..
áŀ¶ (
áŀ¶ áŁĸ
áŀĵ áŀĦáŀĢ
áŀĵ áŀļáŀŁ
áŀĵ áŀļáŀľ
áŀĵ áŀĻáŀĽ
áŀļ áŀļáŀĬ
áŀļ áŀ¢áŀĦ
áŀļ áŀĦáŀĶ
áŀļ áŁĹ
áŀļ áŀĥ
áŀļ áŀĽáŀĢ
áŀļ áŀĴáŀĺ
áŀļ áŀĻáŀĽ
áŀĢ áŀĦ
áŀĢ áŀļáŀĶ
áŀĢ áŀĻáŀĢ
áŀĢ áŀıáŀĺ
áŀĢ áŀĢáŀŁ
áŀĢ áŀĴáŀĺ
áŀĢ áŀĩáŀĵáŀĩ
áŀĢ áŀ¬
áŀĶ áŀĦáŀĶ
áŀĶ áŀĬáŀĽ
áŀĶ áŀŁáŀĦ
áŀĶ áŀĶáŀĬ
áŀĺ áŀĦ
áŀĺ áŀĲ
áŀĺ áŀĺáŀĵ
áŀŁ áŀ¡
áŀŁ áŀļáŀĶáŀŁ
áŀĦ áŀľáŀĶ
áŀĦ áŀĺáŀĢ
áŀĦ áŀĻáŀŁ
áŀĦ áŀļáŀľ
áŀĦ áŀ²
áŀı áŀļáŀĢ
áŀı áŀļáŀŁ
áŀı áŀļáŀĺ
áŀı áŀĥ
áŀı áŀ¬
Ġt r
Ġt ab
Ġt ort
Ġt ied
Ġt uk
Ġa ng
Ġa ps
he ar
he astern
he rent
áŀĽ áŀ¡
áŀĽ áŀ±
áŀĽ áŀĽáŀĵ
áŀĽ áŀĬáŀĽ
áŀĽ áŀ¢áŀĵ
áŀĽ áŀļáŀĽ
áŀĽ áŀĺáŀĢáŀĸ
áŀĽ áŀĦáŀķ
in f
in pe
in hab
áŀĳ áŀĸ
áŀĸ áŀĶ
áŀĸ áŀĴ
áŀĸ áŀĲ
áŀĸ áŀĺáŀĴ
áŀĩ áŀ¢
áŀĩ áŀĹ
áŀĩ áŀļáŀĬ
áŀĻ áŀ±
áŀĻ áŀ¥áŀİ
áŀ· $
áŀ· áŁĴ
áŁĭ ,
áŀ» áŁĶ
áŀĬ áŀĦáŀĺ
áŀĬ áŀŁáŀĢáŀļ
er o
er ted
on ut
on se
re es
re me
áŀħ áŀĽ
áŀħ áŀĨ
áŀħ áŀĶáŀĵ
áŀħ áŀŁáŀĺ
áŀħ áŀ¡
áŀħ áŀ¢áŀĵ
áŀħ áŀŁáŀĦ
áŀ¸ )
áŀĤ áŀĤ
áŀĤ áŀ¢
áŀĤ áŀļáŀĳ
áŀĤ áŀıáŀĵ
áŀĤ áŀĤáŀĦ
áŀľ áŀİ
áŀľ áŀĴ
áŀľ áŀŁáŀĺ
áŀľ áŀ¢áŀĵ
áŀľ áŀħáŀĺ
áŀľ áŀħáŀĵ
áŀľ áŀ¯áŀĢáŀŁ
at or
at anak
Ġs ounds
Ġs ize
Ġs anct
Ġs acked
Ġs anctuary
Ġs olst
Ġc y
Ġc he
Ġc at
Ġc ut
Ġc el
Ġc red
Ġc reat
Ġc ross
Ġc oda
Ġc abinet
Ġc ustom
ed ition
ed ding
en ess
is ations
or k
or ced
or ruption
it ure
it arian
áŀ¢ áŀļ
áŀ¢ áŀħ
al i
al so
áŁĦ áŁĶ
Ġin land
Ġin gred
Ġin herent
an ces
an cy
Ġw a
Ġw r
Ġw ro
Ġw ine
áŀģ áŀĬ
Ġf ail
Ġf ree
Ġf ace
Ġf air
Ġf reedom
Ġf ranÃ§
Ġb amb
Ġb ri
Ġb est
Ġb ric
Ġb rew
Ġb race
Ġb less
Ġb rid
Ġp al
Ġp ill
Ġp ag
Ġp owers
Ġp avil
Ġp ork
áŀİ áŀĸ
áŀİ áŀľ
áŀİ áŀľáŀı
ar ing
ar as
ar ry
ou red
Ġm er
Ġm at
Ġm ed
Ġm od
Ġm ater
Ġm ight
Ġm ounds
Ġm other
Ġm aster
Ġm ilk
Ġm agazine
Ġm akes
ion e
am m
ic an
ic ing
ic les
ic ism
as es
Ġd ay
Ġd one
Ġd well
Ġd ata
Ġd irection
Ġd ynast
áŀĹ áŀŁ
áŀĴ áŀļ
áŀĴ áŀı
áŀĴ áŀĸ
áŀĴ áŀļáŀĶ
áŀĴ áŀĢáŀĺ
áŀĴ áŀļáŀĳ
áŀĴ áŀĸáŀĽ
áŀł áŀĻ
Ġto o
le ase
áŀī áŀľ
áŀī áŀ²
ĠC l
ĠC an
ĠC ivil
ĠC ambod
od ed
od as
ĠáŁ ©áŁł
Ġh it
Ġh um
Ġh ard
Ġh arm
Ġh ung
Ġh ims
Ġh idd
Ġh ier
Ġh app
áŀļáŀĶ áŀĸ
áŀļáŀĶ áŀĬ
áŀļáŀĶ áŀľ
áŀļáŀĶ áŀĶáŀļ
áŀļáŀĶ áŀĶáŀģ
ĠT wo
áŀĲ áŀĹ
áŁĥ )
áŁĥ áŁĴ
áŀķ áŀĦ
Ġre b
Ġre ign
Ġre ach
Ġre tain
ĠK he
ĠK ne
ĠK omp
ĠK ep
ĠK iri
ĠK andal
ĠK Ã¢mpÅŃchÃ©a
ĠK eo
amb ling
Ġl ost
Ġl uc
Ġl ove
Ġl ess
Ġl ink
Ġe as
Ġe mer
Ġe ight
ve k
ĠA g
ĠA mer
ĠS w
ĠS am
ĠS im
ĠS ud
ĠS ports
áŁī áŀ¸
áŁī áŀ¶áŁĨ
áŁī áŀº
áŁī áŁģáŁĩáŁĶ
Ġn ut
Ġn othing
ro b
ĠP rom
ĠP ot
ĠP ort
ĠP ost
ĠP ras
mer s
áŀĨ áŀļ
Ġth us
Ġth read
Ġbe hind
ur ning
em es
em ple
em por
ol ic
ol ocene
Ġas uras
Ġg est
Ġg ive
Ġg ate
Ġg ild
Ġg ives
Ġg ave
Ġg rew
Ġg ames
th ods
ce ived
áŀº áŁĸ
áŀŁáŀĺ áŀļáŀĹ
ra d
ra nd
ra ces
áŀĵáŀĶ áŀļáŀĳ
ist ure
áŀĭ áŀĺ
áŀĭ áŀĬ
áŀĭ áŀľ
áŀĭ áŀ¢
áŀĭ áŀģ
áŀĭ áŀĺáŀŁ
ul ary
ul ok
et er
et ic
Ġcon ve
Ġcon ce
Ġcon vers
Ġfor ci
ĠI f
ĠI slam
Ġst ated
Ġst ates
Ġst ages
Ġst ressed
Ġst ops
Ġ2 5
Ġ2 6
Ġ2 8
áŀļáŀĢ áŀĸ
ĠR ome
ĠR atanak
im ates
im ents
im edia
la b
la va
áŀĦáŀĳ áŀĺ
ter pre
áŀĦáŀĶ áŀĬ
áŀĺáŀĢ áŀĶ
áŀĺáŀĢ áŀı
áŀĺáŀĢ áŀĽ
áŀĺáŀĢ áŀ²
ap s
ĠáŀŁ áŀİ
id ual
Ġon ce
ĠM ong
ĠM ich
ĠM odern
ĠM inist
ĠM edia
ĠM unicip
ĠM agazine
ĠM oly
ĠM ouhot
ĠM annikka
áŀĦáŀŁ áŀĢáŀĺ
un x
un ity
un ci
est ial
Ġwh om
Ġwh ate
Ġwh ite
Ġwh ose
ir t
ir th
ad emic
ĠB ak
ĠB ure
ĠB iosphere
iv idual
áŁ¢ áŁ¢
áŀĻáŀĢ áŀĸáŀĵ
áŀĩáŀĵ áŀħ
áŀĩáŀĵ áŀľ
áŀĩáŀĵ áŀļáŀĶáŀŁ
áŀĩáŀĵ áŀļáŀĦ
áŀĩáŀĵ áŀŁáŀļ
Ġor al
Ġor ph
Ġal tern
Ġal low
Ġal one
Ġal read
ĠáŀĤ áŀİáŀĶáŀĢ
ĠW ik
Ġv ass
Ġv ice
Ġv ide
Ġpro port
Ġde al
Ġde ad
Ġde emed
oun ts
Ġk ings
Ġk ins
Ġk illing
Ġsu m
Ġsu bs
our s
our ished
áŀļáŀŁ áŀĵ
áŀļáŀŁ áŀłáŀĶ
ĠF in
ĠF ine
ĠF act
ĠF ootball
ĠF ollowing
ĠF olk
áŁĹ áŀķ
áŀĻáŀĶ áŀĢ
áŀĻáŀĶ áŀļáŀĳ
áŁĬ áŀ¹
and ing
and emic
ple mented
áŀļáŀł áŀĺáŀĵ
áŀļáŀł áŀĺáŀĬ
Ġr an
Ġr ough
Ġr ises
Ġ19 0
Ġat tend
Ġat mosphere
ak a
Ġcom e
áŁ¡áŁ ©
áŀĦáŀı áŀĺ
ab et
ab ulary
oc ar
oc ated
oc ratic
oc onut
ast ed
áŀĦáŀĩ áŀĤáŀıáŀŁ
Ġex ists
Ġex hib
Ġex clus
Ġex cav
Ġex amples
if f
if t
if iers
ort un
áŀĵáŀĤ áŀļáŀľ
Ġha ir
art z
ĠH igh
ĠV ol
ĠV ann
ĠV II
áŁ¥ áŁłáŁł
áŁ¥ áŁ¤
ĠTh us
ry ing
ĠN e
Ġus age
áŀĢáŀĵ áŀĻ
qu is
Ġse a
Ġse e
áŀĮ áŀĵ
áŀĮ áŀĶ
áŀĮ áŀħ
áŀĮ áŀĽáŀĤ
ac hes
áŀĻáŀĺ áŀł
áŀĻáŀĺ áŀŁáŀĺ
Ġle t
ount ry
Ġne cess
Ġne ck
Ġáŀ¢ áŀĵ
Ġáŀ¢ áŀļ
Ġáŀ¢ áŀŁ
áŀ± áŀļ
áŀıáŀĺ áŀİ
áŁ¡ áŁłáŁłáŁł
Ġar rang
áŁ£ áŁ¢
áŁ£ áŁ¦
ĠáŁ¡áŁ©áŁ £
áŀĵáŀħ áŀĦ
se ly
áŀĦáŀħ áŀı
Ġcl othes
ĠD h
ĠD elt
ĠE n
ĠE ach
áŀĢáŀĬ áŀĽ
áŀĦáŀģ áŀİ
Ġint eg
áŁ¤ áŁ¨
áŁ¤ áŁ©
ĠRe port
áŁĬáŀ¸ áŁĶ
Ġch ief
Ġch ha
Ġch oice
ran ts
ran ces
low ers
ĠL and
ĠL ake
ĠL oe
ĠL ady
ĠL otus
Ġun it
Ġun ity
Ġun its
ĠU p
Ġab s
Ġsh all
Ġsh aped
Ġsh adow
Ġcont act
Ġcont empor
Ġrel ative
Ġcons erv
ĠO CL
ĠO udong
Ġsp here
Ġsp ring
Ġper ceived
áŀĤáŀļ áŀĤ
áŀĤáŀļ áŀĻáŀĵ
Ġver nac
áŀ¯ áŀĳ
áŀĺáŀĳ áŀĺ
red s
Ġinclud ed
ĠG reater
ĠG laize
dition ally
Ġtra ff
áŀĽáŀĳ áŀĳ
áŀĵáŀĸ áŀĽ
Ġnot es
Ġnot able
áŀĦáŀĽ áŀĦ
Ġad v
Ġreg ul
Ġreg ister
Ġrep orts
ÉĻ n
ÉĻ p
ÉĻ w
ĠJ acqu
áŀĻáŀħ áŀĦ
Ġind ividual
ff man
áŀ¥ áŀŁ
ural ity
áŁ§ áŁ§
ĠáŀĽ áŀĦ
Ġpe nd
Ġpe ak
ress ion
Ġinf used
Ġres id
Ġres ident
Ġmon aster
Ġmon ths
áŀĻáŀĳ áŀĳ
ĠInd ones
Ġcomm and
áŀĢáŀĶ áŀİ
ind ows
Ġsome one
Ġcan not
Ġpr ison
ach an
áŀĵáŀ¢ áŀı
Ġpla cing
áŀŁáŀħ áŀļáŀĩ
áŀŁáŀħ áŀļáŀ¢
ell ig
Ġen j
Ġen act
Ġen ough
áŀĢáŀ¢ áŀŁ
Ġcap e
Ġ[ âĨĹ
áŀĸáŀĵ áŀĻ
áŀĤáŀĺ áŀģ
áŀĤáŀĺ áŀļáŀĬ
Ġme thods
amp uc
fer red
Ġlar ger
Ġunder went
ph Ã©a
ph abet
Ġnew ly
Ġexp ect
Ġexp orts
Ġexp ensive
Ġexp edition
Ġ3 2
Ġ3 3
Ġrem ote
Ġmill enn
ĠáŁ£ áŁ¢
ĠáŁ£ áŁłáŁłáŁł
ĠáŁ£ áŁ¥áŁł
Ġcomp uter
áŁ¡áŁ©áŁ ¦áŁł
áŀĶáŀĶ áŀļáŀĺ
Ġdes cript
Ġele v
Ġele cted
Ġ199 1
Ġ199 5
Ġatt ribute
iz es
Ġra re
Ġra ces
Ġte xt
áŀĤáŀĵ áŀĻ
Ġwho le
Ġ197 2
aller ies
Ġcapital s
Ġacc used
Ġqu inc
ens ions
Ġdist ingu
Ġclass ic
Ġcol um
Ġcol lect
Ġmi xt
Ġdec reas
Ġdec ades
Ġdevelop ing
ĠáŁ¡áŁ©áŁ§ áŁ¢
Ġtrans form
Ġent ry
Ġent rances
áŀĶáŀĢ áŀİ
Ġter race
Ġter races
Ġinter v
Ġinter est
Ġfound er
arch ived
Ġloc als
ĠSt ate
ĠSt reet
ĠSt andard
rib es
til es
til ity
Ġco ordinate
old en
Ġ8 9
Ġinst all
Ġ18 6
Ġ18 8
Ġac cept
Ġac ademic
Ġag ric
ĠPro ject
áŁ¢áŁłáŁł áŁ¥
áŁ¢áŁłáŁł áŁ¦
áŁ¢áŁłáŁł áŁ©
áŀļáŀłáŀĺ áŀħ
áŀıáŀķ áŀĦáŀĬ
áŀıáŀķ áŀĽáŀĢ
Ġty pe
Ġins pir
áŁīáŁģ )
Ġprot ests
Ġrepresent s
Ġcar ved
Ġdo ors
Ġinflu ences
áŀļáŀĲ áŀĹ
Ġsoc iety
Ġdan cing
Ġrest ored
Ġrest rict
ĠáŁ¡áŁ¨ áŁ¡áŁł
Ġserv ing
ĠArch itect
ĠArch ae
20 20
Ġ4 0
áŀĵáŀĲ áŀĻáŀħ
áŀĤáŀĢ áŀİ
ĠáŁ¤ áŁł
ĠáŁ¤ áŁ¤áŁł
Ġland sc
Ġpron unci
ix ed
min ed
à¤ ¬
à¤ ľ
Ġfl ourished
Ġpower ful
ĠCent er
ĠCent re
ĠáŁ¦ áŁł
Ġart isans
Ġcommun e
Ġcommun ist
áŀĳáŀĶ áŀĸ
Ġocc as
Ġcor responding
Ġwe ek
Ġwe aving
Ġwe alth
Ġwe bsite
Ġbo y
Ġbo oks
ĠáŁ¨ áŁłáŁł
ĠAn cient
ĠMa hayana
Ġpolit ic
áŀĽáŀķ áŀĽ
Ġwrit ing
Ġcontin ue
Ġregion al
Ġprodu ce
Ġdecor ation
Ġdiffer ence
Ġappro ach
Ġ5 5
áŀį áŀľáŀĶ
âĢĭâĢĭ âĢĭâĢĭ
ish ing
Ġmo ved
Ġmo isture
ĠáŁ¥ áŁł
ĠáŁ¥ áŁłáŁł
Ġhouse hold
Ġ11 50
ĠáŁ¡áŁ¥ áŁł
Ġdep os
áŁ¡áŁ¡áŁ ¨áŁ¡
Ġarm ed
Ġvisit ing
Ġset tled
Ġsim ply
Ġsign s
Ġsign ed
Ġdem ocracy
Ġref lect
Ġshow ed
áŀŁáŀł áŀļáŀĬ
Ġsch olar
Ġsouth west
Ġsouth western
Ġgar ments
Ġstat ue
ĠRo ber
19 99
ful ly
Ã¢ ng
Ã¢ phÃ©a
Éĳ m
ĠâĢ Ŀ
Ġact ive
Ġpract ice
Ġpract iced
áŀĴáŀķ áŀĽáŀĵ
vers ial
Ġgrow n
Ġprocess es
Ġprocess ion
Ġdisc uss
Ġdisc overy
iÉĻ n
áŀļáŀĪ áŀĺáŀĵ
áŀĵáŀĢáŀĬ áŀĳ
ĠáŁ¡áŁ¤ áŁ£áŁ¡
Ġsub ordinate
Ġsub sequ
Ġaddition al
Ġdescrib e
Ġáŀ§ áŀĬ
Ġcas hew
Ġpres ence
Ġpres ident
Ġpres erve
Ġred uced
Ġcontro versial
Ġimport ed
Ġimport ance
áŁ¡áŁ©áŁ©áŁ §
und reds
á¹ Ń
áŀĢáŀĲ áŀĻáŀħ
Ġten se
Ġcou ples
Ġcour ts
Ġcour ty
ĠCo ed
ĠCo ordinate
ĠCo operation
Ġrefer ence
Ġrefer ring
Ġconnect ed
ĠáŀŁáŀł áŀĹ
ĠáŀŁáŀł áŀļáŀĬ
ĠMon ivong
Ġsug ar
Ġru ins
Ġlevel s
ĠáŁ¡áŁ©áŁ¦ áŁł
Ġhead s
Ġperform ance
Ġinvol ve
Ġinvol ves
200 6
áŀĻáŀĺáŀĢ áŀĳ
Ġoper ated
Ġoper ations
Ġsm aller
Ġcer tain
Ġcra ck
Ġcra fts
Ġpoin ts
Ġdest ro
ĠSis ophon
ĠPal ace
ĠPal lava
rah ok
Ġconf lict
áŁ¡áŁ¢ áŁ¡áŁ¨
Ġrecord s
Ġdesign ated
Ġkingdom s
Ġassoci ation
Ġdepict ed
ug uese
áŀĦáŀļáŀĶ áŀĶáŀģ
Ġopen ed
Ġsk ill
Ġsk illed
Ġmyth s
Ġmyth ical
Ġmyth ology
Ġdra wing
Ġanal ytic
Ġke pt
ĠNew s
Ġresult ing
Ġphon ation
Ġphon emes
Ġtransl ates
Ġimpro ved
Ġemplo ys
Ġemplo yed
Ġemplo yment
Ġcharacter ised
Ġcharacter istic
Ġyoung er
cent ury
ka a
Äģ g
Ġaff ected
Ġsa id
Ġmult i
Ġmult ip
Ġdet ail
Ġlow est
Ġlast ed
Ġgu ide
Ġgu arded
Ġgreat est
Ġformer ly
Ġstud y
Ġstud ied
Ġorgan ization
Ġkil n
Ġrul es
Ġexist ed
Ġintrodu ction
Ġshr ines
Ġrepla cing
Ġremain ing
Ġproduct s
Ġproduct ive
Ġschool s
Ġdistinct ive
ov iet
Ġlo ose
ĠAust ral
ĠRes erve
ĠRes cue
ĠáŁ¡áŁ©áŁł áŁ¤
ĠáŁ¡áŁ©áŁł áŁ§
Ġsuc ceed
Ġlear ning
Ġresp onse
Ġjoin ed
Ġquar ry
Ġterrit ory
augh t
Ġoccur s
Ġauthor ity
Ġauthor ities
Ġauthor itarian
Ġcirc le
Ġcirc ular
Ġcosm ology
co le
oe ung
áŀĵáŀĻáŀĢ áŀļ
Ġair port
áŀħáŁĹ áŀĩ
Ġsect ions
Ġfac ilit
Ġflo ors
Ġmodif y
Ġmodif iers
Ġret urn
Ġep ic
ĠSom bai
ĠMe anc
Ġanim als
Ġarri ved
Ġarri vals
ĠLe ague
Ġcontain ing
Ġregular ly
Ġinterpre ted
Ġemphas ising
Ġdispla y
Ġdispla ys
Ġpurp oses
hu vana
Ġfar mers
Ġban ks
Ġbro ad
Ġdip lom
Ġrein terpre
Ġrequ est
ĠKamb oj
ĠSur in
Ġnomin ated
ĠRom an
Ġsust ain
Ġext ra
Ġadject ive
Ġadject ives
Ġrecogn ized
Ġ80 2
Ġpredic ates
Ġobtain ing
Ġcerem onial
Ġcerem ony
Ġdeter ioration
Ġdeter mined
Ġprevious ly
sc ale
Ġà¤ ķ
Ġax is
Ġax ial
Ġcost ume
Ġinhab ited
Ġinhab itants
anor ama
Ġfa ces
Ġdocu ments
Ġdocu mented
Ġhost ed
Ġisol ating
Ġnar ratives
Ġnet work
Ġnood le
Ġnood les
Ġnuc le
Ġnuc lear
ĠMad huvana
Ġalign s
Ġalign ment
ĠHu ffman
Ġchang ed
Ġchang es
Ġcontrast ive
Ġadop ted
Ġprep ared
Ġprep osition
Ġconstitut ional
Ġattra ction
Ġattra ctions
Ġrain y
Ġcoast line
Ġdemand ed
Ġdisput ed
Ġdisput es
Ġderiv ation
Ġderiv ational
Buddh ism
áŀĻáŀĵáŀĤ áŀļáŀĶ
Ġopt ional
Ġsla ves
Ġcamp aign
itud es
Ġinj ured
Ġfil m
Ġfav our
Ġfind ings
Ġframe work
Ġbene ath
Ġdict ionary
Ġdaugh ter
Ġlay out
Ġlos ing
Ġlibr ary
stitut e
Ġconqu ests
Ġstrik es
Ġvoc abulary
Ġexecut ive
ĠáŁ¡áŁ©áŁ¤ áŁ¡
Ġclos est
Ġunivers ities
Ġtransition al
Ġplos ives
Ġinstru ments
Ġgrad ually
Ġcontroll ed
Ġalleged ly
onorific s
ĠMusl ims
Ġviol ence
Ġsyntact ic
æĹ¥ åł
Ġtarget ed
Ġreconst ruction
Ar ch
FE O
Ori ent
ield s
rÃª me
sylla ble
ĠÃī cole
Ġtit le
Ġtreat y
Ġamb ig
Ġobs erved
Ġsour ce
Ġcrit ics
Ġwrest ling
Ġfra ud
Ġfru its
Ġprom in
Ġdomest ic
Ġhab it
ĠTe av
ĠTypical ly
Ġrever se
Ġconjun ctions
Ġcondu cted
Ġfort ifications
Ġstreet s
ĠMic hel
ĠBo oks
Ġprop osed
Ġsuff ici
ĠFore ign
Ġrat io
ĠHen ri
ĠDem ocratic
ultane ously
ĠLong vek
Ġshould er
ĠGu ide
ĠJo hn
Ġens emble
Ġdescend ants
Ġtex tiles
ĠProt est
Ġdivis ions
Ġpasseng er
Ġredup lication
Ġavail able
ĠDvijendra pura
ĠViá¹£á¹ĩ ulok
Ext rÃªme
SAR A
Wh ile
bÉĳ h
áŀıáŀ¬ áŀĺáŀł
inpe at
Ġsanct uaries
Ġsolst ice
Ġcel estial
Ġwro te
ĠfranÃ§ aise
Ġbamb oo
Ġbric k
Ġbrid ge
Ġpill ars
áŀĴáŀĸáŀĽ áŀģ
Ġhims elf
Ġhidd en
Ġhier arch
ĠKne as
ĠKomp ong
Ġluc k
ĠAmer ican
ĠSud achan
ĠPort uguese
Ġthread s
Ġgate way
Ġconvers ation
Ġforci bly
ĠRatanak iri
ĠMich ael
ĠMoly vann
Ġwhate ver
ĠBure au
áŀĩáŀĵáŀļáŀĦ áŀĤ
Ġallow ed
Ġalread y
Ġvass al
Ġkins hip
Ġrough ly
Ġarrang ement
ĠDelt a
ĠLoe u
Ġcontempor ary
ĠOCL C
Ġvernac ular
ĠJacqu es
Ġresident ial
ampuc iÉĻ
Ġquinc unx
Ġcollect ively
Ġmixt ure
Ġdecreas ed
Ġinspir ation
Ġrestrict ions
ĠáŁ¡áŁ¨áŁ¡áŁł áŁ£áŁ¥
ĠArchae olog
Ġlandsc ape
Ġpronunci ation
Ġcrack down
ĠMeanc hey
æĹ¥åł ±
ĠViá¹£á¹ĩulok a
" ;
% .
' .
' t
( ?
) :
) ;
- ,
. :
. ).
/ "
/ )
/ :
1 8
1 00
1 10
1 63
2 6
2 8
2 20
2 32
3 7
4 4
4 8
5 9
5 84
6 50
7 00
8 98
9 7
A D
A M
A n
A ction
B C
B y
B et
C B
C C
C o
C ity
C omp
C lass
C PP
C IN
C orruption
D ra
D ue
E d
E x
E FEO
F on
F or
F rench
G o
G AC
G eograph
H I
H O
H ist
H ow
H un
K amp
L e
L ist
L ove
M on
M odern
O r
O ut
P A
P K
P enh
P EC
P ubs
P ali
P SARA
R el
T on
U n
V A
V N
V is
V iet
W at
W ith
W estern
Z U
a o
a is
a ig
a ut
a fter
a ÅĽ
b b
b h
b o
b ig
b ru
b ok
b ach
b iqu
b ility
b ird
b acked
b ased
b ox
b irth
b lowers
c ra
c her
c ad
c ate
c ies
c ks
c cess
c Ê°
c ement
c hest
c aËĲ
c ases
d o
d en
d le
d ers
d ong
d ael
e bru
f a
f en
f all
f ac
f ten
f ried
f und
f ederation
f amily
g g
g l
g n
g on
g row
g reat
g ov
g reen
g alleries
h i
h or
h ill
h ans
h icles
i odi
i ation
i est
i res
i ber
j um
k e
k o
k r
k ar
k ol
k ai
k Ã´
k rama
l ar
l os
l ater
l ight
l ific
l oph
m i
m ing
m all
m ount
m ÉĻ
m any
m odern
n h
n o
n ay
n ology
n ov
o h
o on
o es
o os
o bs
o ved
o bject
o ËĲ
o ven
p ro
p et
p art
p ac
p ost
p ok
p ite
p resent
p oration
p aren
p ired
p ieces
r or
r ical
r ings
r ise
r Ã¢
r anted
r ÉĶËĲ
s i
s er
s ed
s pe
s ome
s uch
s erv
s iÉĻ
s ize
s elf
s eries
s Ã¢phÃ©a
s Éĳm
s mall
t r
t u
t at
t ent
t ch
t ra
t hen
t een
t ains
t els
t Ã³n
t emple
u j
u it
u an
u ing
u ol
u ong
u ous
u ice
u ments
u thor
u arding
u tha
u fact
v o
v ant
v ia
v ular
w amp
w ards
w hel
y d
y es
y nt
y loph
¦ áŁ¥
© áŁ¢
¶ pp
Ã ¨
Ã ¶pp
Ä ĥ
Ä ķ
Å ĵ
É ²
É Ĺ
Ê ĭ
Ë Į
Ì ¤
ã ĥ
æ ĸ
æ Ł
è ı
ê ľ
Ġ &
Ġ )
Ġ +
Ġ z
Ġ áŀ¾
Ġ áŀ½
Ġ áŀİ
Ġ áŁħ
Ġ il
Ġ rom
Ġ áŀľáŀı
Ġ áŀıáŀĵ
Ġ áŀļáŀŁ
Ġ um
Ġ ill
Ġ áŀĽáŀĵ
Ġ áŀĽáŀĢ
Ġ áŀ¿
Ġ ide
Ġ áŀĺáŀĢáŀĸ
Ġ áŀ§áŀı
Ġ âĨĹ
Ġ êľ
áŀ ©
áŀ¶ âĢĵ
áŀ¶ âĢĿ
áŀĵ áŀİ
áŀĵ áŀļáŀĢ
áŀĵ áŀľáŀı
áŀĵ áŀĽáŀĺ
áŀĵ áŀ¯
áŀĵ áŀ¯áŀĢáŀŁ
áŀĵ áŀļáŀħáŀĵ
áŀĵ áŀ¯áŀĢáŀļ
áŀļ áŀĦáŀĳ
áŀļ áŀĦáŀĵ
áŀļ áŀĦáŀĸ
áŀļ áŀĦáŀĬ
áŀļ áŀļáŀĻ
áŀļ áŀ¬
áŀļ áŀ¥áŀİ
áŀļ áŀļáŀĢáŀĥ
áŀļ áŀıáŀĵáŀĤ
áŀĢ áŀ¢áŀĦ
áŀĢ áŁĹ
áŀĢ áŀĪ
áŀĢ áŀļáŀĵ
áŀĢ áŀļáŀı
áŀĢ áŀĦáŀĢáŀĺ
áŀĢ áŀĦáŀĻ
áŀĢ áŀķáŀĦáŀĬ
áŀĢ áŀĵáŀĤáŀļáŀľáŀı
áŀĶ áŀł
áŀĶ áŀĨ
áŀĶ áŀļáŀĬ
áŀĶ áŀļáŀĶáŀŁ
áŀĶ áŀħáŀĺ
áŀĶ áŀ²
áŀĶ áŀħáŀĵ
áŀĶ áŀ¥áŀİ
áŀĶ áŀĭáŀĺáŀŁ
áŀĺ áŀĶáŀĵ
áŀĺ áŀĻáŀĢ
áŀĺ áŀĥ
áŀĺ áŀĤáŀĺ
áŀĺ áŀĤáŀĵ
áŀĺ áŀŁáŀıáŀľáŀı
áŀŁ áŀķ
áŀŁ áŀļáŀĬ
áŀŁ áŀŁáŀĺ
áŀŁ áŀĵáŀĢ
áŀŁ áŀļáŀĢ
áŀŁ áŀĽáŀĶ
áŀŁ áŀĢáŀĵ
áŀŁ áŀĬáŀĽ
áŀŁ áŀ¢áŀĵ
áŀŁ áŀ²
áŀŁ áŀłáŀĵ
áŀŁ áŀ¥áŀİ
áŀŁ áŀŁáŀĩ
áŀŁ áŀŁáŀĽ
áŀŁ áŀ¦áŀŁ
áŀĦ áŀıáŀĵ
áŀĦ áŀĴáŀĺ
áŀĦ áŀ¥
áŀĦ áŀ¥áŀİ
áŀı áŀŁáŀĺ
áŀı áŀĺáŀĵ
áŀı áŀļáŀł
áŀı áŀĪ
áŀı áŀĽáŀĳ
áŀı áŀ§áŀı
áŀı áŀĪáŀĶ
Ġt i
Ġt al
Ġt ou
Ġt as
Ġt ri
Ġt est
Ġt all
Ġt rou
Ġt reas
Ġt ale
Ġt ram
Ġt ried
Ġt reated
Ġt rip
Ġt went
Ġt ales
Ġt ribute
Ġt urning
Ġt ensions
Ġt aught
Ġa he
Ġa st
Ġa ction
Ġa mp
he ries
áŀĽ áŀıáŀĵ
áŀĽ áŀħáŀĺ
áŀĽ áŀ¯
in h
in n
in it
in ter
in ary
in clud
in cial
in itial
in ished
in ned
in tels
áŀĳ áŀĤ
áŀĳ áŀķ
áŀĳ áŀļáŀĬ
áŀĳ áŀĦáŀĵ
áŀĳ áŀ¥
áŀĸ áŀĻ
áŀĸ áŀĦáŀĢ
áŀĸ áŀıáŀĺ
áŀĸ áŀļáŀľ
áŀĸ áŀħáŀĺ
áŀĸ áŀ¥áŀİ
áŀĸ áŀ¢áŀŁ
áŀĸ áŀ¢áŀĢ
áŀĩ áŀĳ
áŀĩ áŀĩ
áŀĩ áŀĵáŀĢ
áŀĻ áŀıáŀĵ
áŀĻ áŀļáŀł
áŀĻ áŀļáŀľ
áŀĻ áŀ¢áŀĵ
áŀĻ áŀħáŀĢ
áŀĻ áŀ¥
áŀĻ áŀıáŀĶ
áŀĻ áŁĹáŀĵ
áŀĻ áŀ§áŀĶáŀĢáŀļáŀİ
áŀ· )
áŀ· ,
áŀ· -
áŁĨ áŁĴ
áŁĭ /
áŁĭ áŁĭ
áŁĭ )áŁĶ
áŀ» ,
áŀ» áŀ¸
áŀĬ áŀĵ
áŀĬ áŀļ
áŀĬ áŀĦáŀĳ
áŀĬ áŀĦáŀĩ
áŀĬ áŀĢáŀĲ
er l
er ary
er race
Ġthe ms
on ent
on ors
áŁģ )áŁĶ
áŁģ âĢĭâĢĭ
re y
re am
re em
re ak
áŀħ áŀĻ
áŀħ áŀħ
áŀħ áŀľ
áŀħ áŀ¢
áŀħ áŀļáŀĶ
áŀħ áŀ¢áŀĦ
áŀħ áŀĻáŀĢ
áŀħ áŀļáŀł
áŀħ áŀĵáŀļ
áŀħ áŀĻáŀĽ
áŀ¸ -
áŀ¸ áŁĴ
Ġo cean
áŀĤ áŀĽ
áŀĤ áŀĹ
áŀĤ áŀĲ
áŀĤ áŀļáŀĩ
áŀĤ áŀĽáŀĶ
áŀĤ áŀļáŀŁ
áŀĤ áŀļáŀł
áŀĤ áŀļáŀľ
áŀĤ áŀĽáŀı
áŀľ áŀ¡
áŀľ áŀļáŀĶáŀŁ
áŀľ áŀĩáŀĵ
áŀľ áŀ±
áŀľ áŀĢáŀļ
áŀľ áŀ²
áŁĤ áŁĶ
at ri
at istics
Ġs en
Ġs an
Ġs le
Ġs ra
Ġs ate
Ġs ere
Ġs ays
Ġs its
Ġs ib
Ġs ongs
Ġs ister
Ġs bai
Ġs olar
Ġs ources
Ġs cience
Ġs wamp
Ġc m
Ġc le
Ġc ro
Ġc ast
Ġc ited
Ġc hes
Ġc Éĳ
Ġc ave
Ġc ement
Ġc oconut
ed iments
en cies
áŀ¼ âĢĭ
is s
is ure
is heries
áŀ¾ áŁĶ
or er
or ce
or qu
or ian
or ters
or cer
or poration
es ides
es ters
it a
it c
it u
it es
it ation
it ous
it ime
áŀ¢ áŀĤ
áŀ¢ áŀİ
áŀ¢ áŀĥ
al ition
al though
al uation
al ena
Ġin her
Ġin itiative
an ch
an ies
an ac
Ġw ent
Ġw ra
Ġw id
Ġw ant
Ġw alled
Ġw ars
Ġw inds
Ġw edding
Ġw oven
áŀģ áŀĤ
áŀģ áŀļáŀĹ
áŀģ áŀħáŀĺ
áŀģ áŀģáŀİ
Ġf at
Ġf ine
Ġf ear
Ġf ake
Ġf ried
Ġf elt
Ġf ront
Ġf isheries
Ġb ed
Ġb ar
Ġb ig
Ġb ud
Ġb low
Ġb ag
Ġb att
Ġb iosphere
Ġb ulk
Ġb Ã¡
Ġb ribes
Ġb iodi
Ġp en
Ġp ieces
Ġp andemic
Ġp rahok
Ġp inpeat
Ġp ediments
áŀİ áŀĽ
áŀİ áŀĳ
áŀİ áŀĬ
áŀİ áŀĲ
áŁħ áŁĶ
ar f
ar i
ar ly
ar ter
ar ative
ar ach
ar ious
ar ply
ar Ä«
ou ra
áŁĶ âĢĭ
Ġm ic
Ġm our
Ġm and
Ġm art
Ġm ural
Ġm edic
Ġm achine
am ese
am outh
am ics
om es
om ph
om ob
ic on
ic el
ic ations
áŀ¶áŁĨ )
as mine
Ġd a
Ġd ur
Ġd im
Ġd ang
Ġd ine
Ġd og
Ġd ating
Ġd ied
áŀĹ áŀİ
áŀĴ áŀĻ
áŀĴ áŀļáŀĬ
áŀĴ áŀ¡
áŀĴ áŀļáŀĶáŀŁ
áŀĴ áŀĶáŀļ
áŀĴ áŀ¢áŀĶ
áŀĴ áŀļáŀ¢áŀĵ
áŀł áŀı
áŀł áŀĳ
Ġto ol
Ġto ld
Ġto asted
le ist
le ang
áŀī áŀĻ
áŀī áŀģ
áŀī áŀĶáŀĵ
ĠC r
ĠC y
ĠC he
ĠC our
ĠC out
ĠC red
ĠC ensus
ĠC amk
ĠC lass
ĠC ompan
ĠC hey
ĠC abinet
ĠC ode
ĠC apital
ĠC OV
ĠC ountry
ĠC orporation
od es
od ay
od har
ent h
ent ed
ent ory
ĠáŁ ©
ĠáŁ Ģ
Ġáŀĵ áŀĻ
Ġh ar
Ġh om
Ġh op
Ġh ands
Ġh onor
Ġh oly
Ġh oles
Ġh ours
Ġh undreds
áŀļáŀĶ áŀĶ
áŀļáŀĶ áŀĶáŀŁ
áŀļáŀĶ áŀĶáŀĶ
áŀļáŀĶ áŀĶáŀĳ
áŀļáŀĶ áŀģáŀİ
ĠT ro
ĠT um
ĠT ai
ĠT ouk
ĠT reas
ĠT imes
ĠT rip
ĠT uol
ĠT errace
ĠT oday
áŀĲ áŀĽ
áŀĲ áŀĻ
áŀĲ áŀĶáŀĳ
áŀĢáŀĺ áŀĵ
ct ang
áŀķ áŀĽ
Ġre al
Ġre ve
Ġre ject
Ġre ality
Ġre asons
Ġre lease
Ġre ctang
il s
il ation
il ies
il ater
áŁł áŁ£áŁ¥
Ġis lands
ĠK or
ĠK ur
ĠK ol
ĠK ong
ĠK ak
ĠK ake
ĠK han
ĠK illing
ĠK ris
ĠK bach
ĠK anch
ĠK omph
amb hu
Ġl ing
Ġl iv
Ġl ine
Ġl ions
Ġl og
Ġl ime
Ġl oot
Ġl eng
Ġl ady
Ġl ingu
Ġl intels
Ġe ver
Ġe art
Ġe ld
Ġe lis
Ġe mot
Ġe lab
ve ments
Ġ( /
st ressed
st ead
st yle
ĠA nd
ĠA ural
ĠA ps
ĠA ward
ĠA PSARA
ĠA ZU
ĠA ccess
ĠA post
ĠA uthor
ĠS u
ĠS er
ĠS an
ĠS ri
ĠS iv
ĠS oc
ĠS pe
ĠS ha
ĠS up
ĠS way
ĠS ever
ĠS angk
ĠS af
ĠS cience
ĠS orvong
ĠS VO
ĠS oviet
ĠS aig
ĠS nay
ĠS inn
Ġn or
Ġn ine
Ġn av
Ġn ag
Ġn ick
ro l
ro om
ro ad
ĠP en
ĠP ra
ĠP ag
ĠP ail
ĠP rah
ĠP urs
ĠP anorama
mer ly
ly mp
Ġth ing
Ġth om
Ġth row
Ġbe g
Ġbe aches
Ġbe aut
ur ity
ur ies
ur red
ver b
em ies
ol it
ol ut
Ġg ri
Ġg ain
Ġg one
Ġg ates
Ġg ather
Ġg lass
Ġg rid
Ġg reen
Ġg ambling
Ġg rants
Ġg ranted
th y
th is
th ong
áŀļáŀĬ áŀİ
ĠKhmer isation
ri e
ri f
ri gh
ri mp
ri ages
áŀº :
áŀº áŁĶ
áŀĵáŀĢ áŀļ
áŀĵáŀĢ áŀħ
áŀĵáŀĢ áŀģ
áŀĵáŀĢ áŀļáŀĶ
áŀĵáŀĢ áŀĦáŀĳ
áŀĵáŀĢ áŀ¢áŀĦ
áŀĵáŀĢ áŀ¯
áŀĵáŀĢ áŀĵáŀĻ
ĠThe ir
ra w
ra de
ra cha
ĠáŀĢ áŀī
us ing
áŀĵáŀĶ áŀļ
áŀĵáŀĶ áŀĳ
áŀĵáŀĶ áŀĬ
ist le
ist ries
ist rict
áŀĭ áŀĽ
áŀĭ áŀĳ
áŀĭ áŀŁáŀĦ
ul ner
et ing
áŀļáŀĩ áŀĵáŀĩ
Ġcon clud
Ġcon not
Ġcon vey
Ġfor ce
Ġfor fe
ĠI ll
ĠI ron
ĠI EC
ĠI LO
Ġst ra
Ġst amp
Ġst orm
Ġst up
Ġst air
Ġst ick
Ġst ories
Ġst rip
Ġst adium
ith ing
Ġ2 7
áŀļáŀĢ áŀĬ
áŀļáŀĢ áŀĲ
áŀľáŀĶ áŀĦ
ĠR os
ĠR ese
ĠR ural
ĠR Ã©
im a
im ing
im eter
la in
la den
áŀĦáŀĳ áŀĶ
ter m
ter y
ter min
ter day
ĠáŀĶ áŀħ
áŀĦáŀĢ áŀŁ
áŀĦáŀĢ áŀİ
áŀĦáŀĶ áŀİ
ig able
áŀĺáŀĢ áŀļ
áŀĺáŀĢ áŀŁ
áŀĺáŀĢ áŀĳáŀŁ
áŀĺáŀĢ áŀĳáŀĽ
ap ura
ap ped
ĠáŀŁ áŀļ
ĠáŀŁ áŀĸ
ĠáŀŁ áŀļáŀŁ
ĠáŀŁ áŀıáŀľáŀı
Ġon ward
ĠM at
ĠM ain
ĠM ag
ĠM ade
ĠM uch
ĠM aster
ĠM embers
áŀĦáŀŁ áŀĵ
áŀĦáŀŁ áŀļ
áŀĦáŀŁ áŀĸ
un al
áŁĪ (
est oration
est ock
ĠáŁ¡áŁ ¡
Ġwh istle
ad ed
ad ily
ot i
ot ed
ot ion
ot el
ot um
ot ted
ot hea
ĠB as
ĠB et
ĠB el
ĠB ass
ĠB oth
ĠB otum
iv oy
ut in
ut es
ut ation
áŁ¢ áŁ¦
áŁ¢ áŁ¦áŁł
áŀĻáŀĢ áŀļ
áŀĻáŀĢ áŀĦ
áŀĻáŀĢ áŀĸ
áŀĻáŀĢ áŀĬ
res pect
ud e
ud icial
Ġthat ch
ment ation
ment ary
os en
os yllabic
os ystem
Ġor chest
Ġal phabet
ĠáŀĤ áŀĺ
ate au
ĠW e
ĠW ords
ĠW ashing
ĠW indows
Ġáŀĺ áŀĵ
Ġáŀĺ áŀĳ
Ġv ol
Ġv ong
Ġv ac
Ġv ener
Ġv ulner
Ġpro ble
Ġpro te
Ġpro xim
Ġpro lific
Ġde l
Ġde ep
áŀĺáŀĵ áŀĵ
Ġit ems
oun ter
Ġan yth
Ġan ti
áŀĽáŀĶ áŀħ
áŀĽáŀĶ áŀģ
Ġk d
Ġk in
Ġk ro
Ġk ong
Ġk ind
Ġk ick
Ġk anor
Ġk uy
Ġk ampuciÉĻ
Ġk hans
Ġsu p
Ġsu pre
our nal
áŀļáŀŁ áŀĶ
áŀļáŀŁ áŀĹ
ĠF ran
ĠF und
ĠF ederation
ĠF amily
ĠF UN
ĠF ields
ĠF ebru
áŁĹ áŀĶ
áŁĹ áŀĨ
áŁĹ áŀļáŀĶáŀŁ
áŀĻáŀĶ áŀļ
ang ing
ang ible
áŁĬ áŀ¾
el ing
el ry
el low
el lect
el ves
and le
ple mentary
áŀļáŀł áŀĺáŀĢ
áŀļáŀł áŀĺáŀı
áŀļáŀł áŀĺáŀĸ
áŀļáŀł áŀĺáŀģ
Ġr is
Ġr ich
Ġr one
Ġr ates
Ġr Ã´
Ġ19 2
Ġ19 6
Ġ19 69
ak ed
ak en
áŀļáŀĺ áŀł
áŀļáŀĺ áŀŁáŀĺ
áŀĵáŀĬ áŀİ
áŀĵáŀĬ áŀĢáŀĲáŀĻáŀħ
áŀļáŀĸ áŀı
Ġcom es
Ġwor st
ure ly
áŁ¡áŁ ¦
hn ang
áŀĦáŀĸ áŀĽáŀĢáŀĺ
ab led
ab uri
oc ide
ast ic
ical s
Ġex termin
if ul
if est
if ies
um s
um es
áŀĻáŀŁ áŀĶ
áŁĮ âĢĭ
áŁĮ áŁĶ
áŀĵáŀĤ áŀļáŀĬ
áŀĵáŀĤ áŀļáŀĤ
ĠH a
ĠH o
ĠH olocene
ĠH onorifics
ĠH otel
ĠV ict
ĠV illa
ĠV rah
ĠV orvong
áŁ¥ áŁłáŁłáŁł
ĠáŁ¢ áŁ§
áŀĦáŀ¢ áŀļ
áŀĦáŀ¢ áŀĹ
ĠTh ous
ĠTh me
ĠN ol
ĠN ot
ĠN ik
ĠN ortheast
áŀļáŀĵ áŀļ
áŀļáŀĵ áŀĻ
cl o
cl am
cl ock
qu et
qu ences
áŀļáŀı áŀĺ
áŀļáŀı áŀľ
áŀĻáŀĵ áŀĹáŀİ
Ġse ats
Ġse asons
Ġse emed
Ġse lected
Ġse quences
áŀĮ áŀŁ
áŀĮ áŀĸ
áŀĮ áŀĤ
áŀĮ áŀĽáŀĵ
áŀĮ áŀĽáŀĳ
ac ity
Ġáŀĳ áŀŁ
áŀĻáŀĺ áŀĩ
áŀĻáŀĺ áŀĬ
áŀĻáŀĺ áŀĤ
áŀĻáŀĺ áŀľ
áŀĻáŀĺ áŀļáŀĶáŀŁ
áŀļáŀİ áŀĶáŀĵ
pp ings
Ġcent res
Ġcent ered
ition s
ĠCh ild
ĠCh uon
ĠCh oeung
ĠCh hnang
Ġáŀļ áŀĦ
Ġáŀļ áŀĻ
Ġáŀļ áŀĻáŀĢ
Ġle af
Ġne ed
Ġne ither
Ġne xt
Ġáŀ¢ áŀĢ
Ġáŀ¢ áŀĺ
Ġáŀ¢ áŀĤ
Ġáŀ¢ áŀĹ
Ġáŀ¢ áŀĥ
áŀ± áŀĢ
áŀĻáŀĬ áŀĦ
áŀĻáŀĬ áŀĽ
áŀĵáŀŁ áŀĦ
áŀĵáŀŁ áŀİ
áŀĵáŀŁ áŀł
áŀĵáŀŁ áŀī
áŀĵáŀŁ áŀļáŀŁ
ĠIn teg
ĠIn itiative
ĠIn stitute
ĠIn stead
áŀĵáŀĳ áŀĵ
áŀıáŀĢ áŀŁ
áŀĦáŀĺ áŀĦ
Ġar rest
áŁ£ áŁ£
áŀļáŀľ áŀĢáŀĺ
iet al
iet ies
se c
áŀ¶âĢĭ âĢĭ
Ġcl ashing
Ġcl iff
ĠD ay
ĠD av
ĠD ict
ĠD uong
ĠD istrict
ĠE k
ĠE le
ĠE ra
ĠE dition
ĠE ink
ĠE arly
ant ic
áŀĢáŀĬ áŀĵ
áŁĭâĢĭ áŁĶ
ren cy
Ġint ric
Ġint imates
Ġint ellig
Ġint ellect
áŁ¤ áŁ¥
ĠRe g
ĠRe ach
ĠRe asons
Ġáŀħ áŀĺ
Ġáŀħ áŀĦ
Ġáŀħ áŀĽ
áŀĢáŀŁ áŀļ
áŀļáŀħ áŀĦ
Ġch ains
Ġch air
Ġch osen
tern atively
Ġu biqu
Ġu vular
ĠWat er
ĠWat ch
Ġhe art
Ġhe ard
Ġhe ight
áŀļáŀĦ áŀļ
áŀļáŀĦ áŀĽ
áŀļáŀĦ áŀļáŀĶáŀŁ
ĠL on
ĠL an
ĠL ove
ĠL ank
ĠL ibr
ĠL ocated
ĠL iber
Ġun c
Ġun less
Ġun like
Ġun mar
Ġun inhab
ĠU nder
ĠU CB
ĠU dong
áŁ¦ áŁ¥
áŁ¦ áŁ¦
áŁ¦ áŁłáŁłáŁł
áŀĢáŀļ áŀĤ
Ġab le
Ġab rupt
Ġab ug
Ġab dic
Ġab road
Ġsh own
Ġsh ift
Ġsh arply
Ġsh rimp
Ġcont ained
nam ese
áŀĦáŀļ áŀĽ
áŀĦáŀļ áŀĲ
Ġrel ate
Ġrel ating
Ġcons olid
ok i
ok ing
ĠO m
ĠO r
ĠO ver
ĠO ng
ĠO uk
ĠO fficial
ĠO cean
ĠO lymp
Ġpart ies
áŀĵáŀļ áŀĦáŀĵ
Ġsp ons
Ġsp orts
Ġsp ices
Ġper man
Ġper fect
Ġper imeter
ear ly
opul ar
av an
av ana
áŀ§ áŀĶáŀĳ
áŀĤáŀļ áŀļ
áŀ¯ áŀĸ
áŀ¯ áŀĢáŀĹ
ĠáŁł áŁ¡
ag n
ag ing
ag ement
ĠBuddh as
ĠG od
ĠG ener
ĠG ov
ĠG olden
Ġy ellow
áŀ»áŁĩ âĢĭ
Ġtra ding
Ġpopul ated
Ġpopul ous
hen tic
Ġnot ably
áŀĶáŀĦ áŀŁáŀĺ
áŀĦáŀĤ áŀĺ
Ġdis yllabic
Ġdis respect
Ġad mit
Ġreg ener
Ġreg ained
Ġreg arding
Ġrep air
Ġrep etitive
Ġrep atri
ign ed
ĠJ ar
ĠJ et
ĠJ ud
ĠJ ava
Ġser ious
áŀĺáŀł áŀĵ
áŁ§ áŁ£
ruct ed
ruct ive
Ġover ran
Ġover see
Ġover grow
Ġover whel
con son
lis ed
Ġim age
Ġim ag
Ġim plemented
áŁ¨ áŁ¥áŁł
Ġcountry side
áŀŁáŀļ áŀģ
ress ively
áŀĽáŀĬ áŀĬ
Ġinf lect
Ġinf lection
Ġinf ixes
Ġres erve
ten ance
áŀĵáŀķ áŀĽ
áŀĵáŀķ áŀĽáŀŁ
áŀĵáŀķ áŀŁáŀŁáŀĩ
Ġmon th
Ġmon oph
Ġmon osyllabic
Ġmon astic
Ġprov incial
Ġcomm ission
wo od
áŀĵáŀĺ áŀĢáŀĺ
Ġcan al
Ġpr inces
áŀĵáŀ¢ áŀĶ
Ġbut t
Ġpla ins
Ġpla cate
Cambodi ans
áŀŁáŀħ áŀļáŀĶáŀļáŀĳ
ell ing
ell ery
Ġen for
Ġen emies
Ġspe aking
Ġcap acity
Ġbet ter
Ġgovern ance
Ġgovern ors
Ġmar ine
Ġmar itime
Ġfollow ers
áŀĦáŀľ áŀŁ
áŀĤáŀĺ áŀı
áŀĤáŀĺ áŀļáŀĶáŀŁ
Ġme als
Ġev ict
Ġev olved
Ġev aluation
ose i
Ġunder t
Ġunder way
Ġunder to
te av
te xt
Ġpre f
Ġpre fer
Ġpre hist
Ġexp and
Ġexp lic
Ġ3 7
Ġ3 00
Ġ3 50
Ġbec oming
Ġbec omes
áŀıáŀĳ áŀĳ
Ġrem arry
Ġrem oved
Ġj ure
Ġj obs
Ġj uice
Ġj asmine
Ġri ÉĻp
Ġinv ade
Ġinv entory
Ġinv aded
Ġconst itu
Ġbas ket
Ġph ase
Ġmain tains
Ġmain tenance
Ġmill ions
ĠáŁ£ áŁ£
Ġrec la
Ġrec over
Ġrec overed
Ġcomp et
Ġcomp any
Ġcomp lic
Ġcomp anies
áŁ¡áŁ©áŁ ¥
áŁ¡áŁ©áŁ ¨
rans itive
áŀ¬ áŀĳ
Ġdes ser
Ġele ct
Ġele ctions
áŀĦáŀŁáŀĺ áŀļáŀĹ
áŀĦáŁĹ áŀĢ
áŀĦáŁĹ áŀĶ
áŀĦáŁĹ áŀĩ
áŀĦáŁĹ áŀĹ
ĠAr t
Ġ199 9
Ġatt ack
Ġatt ention
áŀĺáŀĬ áŀİ
áŀĻáŀ¢ áŀĹ
Ġra bai
Ġra di
áŀĤáŀı áŀļáŀĶáŀŁ
ough t
Ġ197 8
lic ts
Ġfe eling
áŁĪâĢĭ (
Ġchild birth
ËĲ n
Ġacc ent
Ġacc ounts
Ġcult urally
Ġma xim
Ġma hor
iver se
Ġqu ite
Ġqu ick
Ġqu artz
áŀĵáŀĹ áŀĢ
áŀĦáŀķ áŀĽ
Ġsc ene
Ġsc arf
ens ity
Ġdist rict
odu ct
Ġclass es
ps ed
arm a
Ġdevelop ments
ĠáŁ¡áŁ©áŁ§ áŁ¤
ĠáŁ¡áŁ©áŁ§ áŁ¨
Ã© an
Ã© tat
Ġtrans ferred
Ġsur vey
Ġfam ili
Ġfam ilies
rim ary
ha ÉĻj
lu ence
Ġent h
áŀĢáŀħ áŀĦ
Ġinter ests
Ġloc ation
ĠSt ir
ĠSt adium
ĠSt atistics
Ġco ordin
Ġpl us
Ġpl ant
Ġpl urality
old ing
ĠDe fen
ĠDe part
Ġroyal s
Ġmark ing
Ġ8 5
Ġ8 8
Ġ8 00
Ġ8 62
áŀĵáŀŁáŀĺ áŀı
Ġout com
Ġinst ance
Ġinst alled
Ġinst ruction
Ġinst ability
omin al
Ġ18 0
Ġ18 1
Ġvis ible
Ġag ed
Ġag es
Ġag reed
Ġhist oric
Ġlater ite
ĠPro g
áŁ¢áŁłáŁł áŁ¡
áŁ¢áŁłáŁł áŁ¨
áŀļáŀłáŀĺ áŀĤ
Ġsystem s
áŀħáŀĳ áŀĳ
Ġins pired
áŀĴáŀĵ áŀĻ
Ġend ed
Ġend ing
Ġend ow
áŁīáŁģ áŁĶ
Ġprot esters
Ġrepresent ative
Ġrepresent atives
Ġcar ve
Ġcar ri
Ġcar ries
Ġcar ving
Ġdo zen
Ġimp lying
Angkor ian
ĠáŀļáŀĶ áŀĶáŀĳ
ĠáŀļáŀĶ áŀĶáŀĲ
Ġsoc ietal
Ġrest aur
Ġlike ly
Ġlike wise
Ġnorth western
ĠáŁ¡áŁ¨ áŁł
ĠáŁ¡áŁ¨ áŁ¡áŁ£
ĠáŁ¡áŁ¨ áŁ¦áŁł
ĠáŁ¢áŁłáŁł áŁł
ĠáŁ¢áŁłáŁł áŁ¥
ĠáŁ¢áŁłáŁł áŁ£
Ġserv ant
ĠArch aeological
Ġpers ist
Ġmin i
Ġmin es
Ġmin ib
Ġmin istries
Ġmin utes
ĠáŁ¤ áŁ¨
áŁ¢áŁł áŁ¡áŁ£
Ġvar ieties
áŁ¡áŁł áŁ¥áŁł
à¤ ®
à¤ ¶
Ġfl ights
ĠáŁ¦ áŁłáŁł
ĠáŁ¦ áŁ§
ĠáŁ§ áŁł
ĠáŁ§ áŁłáŁł
Ġart ic
Ġart ists
Ġart istic
Ġcommun ic
Ġcommun ities
ib ly
ib ility
pect ive
ys cra
Ġher self
Ġcor rupt
Ġcor rid
Ġcor ners
Ġcor pse
Ġwe ap
Ġbo oming
ĠáŁ¨ áŁ¥
Ġhigh lands
ĠAn nam
ĠAn tÃ³n
ĠPar ts
ĠPar liament
ĠMa hab
ĠMa jum
ĠUN TAC
Ġmean ings
Ġforest ed
Ġpolit eness
form ations
áŀıáŀļ áŀıáŀĵáŀĤ
áŀĻáŀķ áŀĽ
áŀĻáŀķ áŀĦáŀĬ
Ġwrit er
Ġwrit ings
Ġdiv ides
Ġno bility
ĠWor king
ĠIndian ised
Ġdecor ate
Ġposs ibly
Ġprotect ed
Ġappro ved
ll ite
the ra
Ġ5 3
Ġmo v
Ġmo on
Ġ11 13
Ġsty les
Ġsty lised
ĠáŁ¡áŁ¥ áŁ©áŁ
ĠáŁ¡áŁ¥ áŁ¢áŁ¥
ĠáŁ¡áŁ¥ áŁ¤áŁ¡
Ġdep art
áŁ¡áŁ¡áŁ ¦áŁł
áŁ¡áŁ¡áŁ ¦áŁ¥
Ġarm s
Ġarm ies
ĠUn ion
Ġpopular ity
Ġindic ative
Ġvisit or
Ġsymbol s
Ġsymbol ise
att anac
Ġso ften
Ġsim ple
Ġsim ultaneously
Ġsign ify
Ġdem ol
Ġdem ons
Ġref ers
Ġref used
Ġeff ort
Ġbel ief
Ġbel ongs
Ġ14 32
Ġ14 31
Ġsever e
áŀļáŀĹáŀĸ áŀĳ
áŀļáŀĹáŀĸ áŀģ
áŀļáŀĹáŀĸ áŀĺáŀĢáŀĸ
áŁ¡áŁ©áŁ§ áŁ¥
áŁ¡áŁ©áŁ§ áŁ¦
Ġeconom ically
li er
pre ah
Ġ6 5
áŀŁáŀł áŀĹ
áŀĽáŀħ áŀĦ
Ġopp onents
Ġopp ortun
Ġopp ression
Ġsout heastern
Ġgar ud
Ġgar lic
Ġgar lands
Ġ16 2
Ġ16 98
ĠáŁ¢áŁł áŁ¡áŁł
ĠáŁ¢áŁł áŁ¡áŁ¢
ĠáŁ¢áŁł áŁ¢áŁ£
ĠáŁ¡áŁ©áŁ©áŁ ¡
Ġspir it
ological ly
Ġsupport ing
Ġcontinu es
Ġcontinu ing
.. ..
19 93
ful l
iqu es
ung le
Ã¢ m
Éĳ l
ĠY at
ĠY aÅĽ
Ġact ual
Ġsit uation
Ġwar ring
Ġpract ical
Ġpract ised
omp ass
Ġdirect ly
Ġdirect ive
áŀĴáŀķ áŀĽáŀĶ
Ġlong er
vers ity
Ġ12 7
Ġ17 95
ordin ating
Ġinvest ors
ep ing
iÉĻ p
ron om
ven ues
yth s
Ġes c
áŀĺáŀĹ áŀĢ
rel ated
rel ief
Ġold er
Ġold est
Ġsing ers
Ġsing ular
Ġpass ing
Ġpass ive
Ġpass age
Ġder ives
ĠáŁ¡áŁ¤ áŁ£áŁ¢
ĠáŁ¡áŁ©áŁ¥ áŁł
ĠáŁ¡áŁ©áŁ¥ áŁ¥
ĠáŁ¡áŁ©áŁ¥ áŁ¨
Ġindepend ently
Ġspec ul
Ġhistorical ly
Ġliter acy
pr oduct
É¨ n
Ġáŀ§ áŀŁáŀĹ
áŀĵáŀĪ áŀĶ
Ġcas es
Ġcas ual
Ġcivil ization
Ġprim e
Ġdam s
Ġdam aged
Ġdomin ant
ĠTour ist
Ġ15 9
Ġ15 86
Ġ15 49
áŁ¡áŁ¤ áŁ¢áŁ¥
ĠVis it
Ġseason al
Ġchar ge
áŁ¡áŁ©áŁ©áŁ ¡
áŁ¡áŁ©áŁ©áŁ ©
Ġappe ared
10 4
Si amese
ĠáŀĺáŀĢ áŀĶ
Ġpar liament
Ġrefer ent
Ġequ ally
Ġ10 5
Ġ13 72
rav arman
Ġconnect ions
Ġdev as
Ġleg s
ĠáŁ¡áŁ©áŁ¦ áŁ¢
Ġinvol ving
200 1
Ġident ifies
áŀĻáŀĺáŀĢ áŀĶ
Ġce iling
Ġcer amics
Ġcur rency
Ġcra ft
Ġfun eral
Ġfun erary
Ġpoin ting
Ġman aged
Ġman ufact
Ġmid dle
Ġdest ination
Ġdest ructive
ĠTra de
ĠTra ins
ĠTra ditional
ĠSis amouth
Ġconf isc
Ġconf licts
Ġconf luence
Ġste la
Ġste ep
Ġste adily
Ġdef ine
Ġdef ined
Ġdef ensive
Ġconsist ently
Ġestim ates
Ġdepict ion
Ġdepict ions
eg uarding
ĠZ heng
áŁ©áŁ ¥
áŀĶáŀľ áŀļáŀĵ
Ġaut o
Ġaut omob
Ġaut hentic
áŀĤáŀħáŀĺ áŀĳ
áŀĤáŀħáŀĺ áŀĬ
áŀĤáŀħáŀĺ áŀĤ
Ġsk yscra
Ġfact or
Ġdra w
Ġdra wn
leg al
ĠComm unist
ĠComm unity
Ġrese ar
Ġvo ice
Ġvo icing
Ġke ËĲ
Ġsubject s
Ġsepar ated
Ġneg ation
Ġneg ative
Ġneg lected
Ġneg oti
Ġtransl ation
Ġyoung est
ka ËĲ
Äģ da
rew eries
Ġclear ly
Ġfish ing
Ġmult itud
Ġlow land
Ġlast ing
ĠSe a
ĠSe ima
ĠPh um
ĠPh sar
Ġthreat en
Ġthreat ened
chin buri
Ġstud ies
Ġstud ents
Ġorgan ised
Ġorgan ized
Ġorgan isations
Ġdecl arative
Ġrul ing
Ġexist ing
Ġheav y
Ġheav ens
Ġrepla ce
Ġsurv iving
Ġaccess ible
Ġflood ed
Ġeffect s
Ġeffect ive
Ġdistinct ly
Ġsuggest s
Ġsuggest ed
Ġtrib al
onst ruction
Ġsac rif
Ġfri ar
Ġpresent ed
ĠPr in
ĠTherav Äģda
ĠRes ources
ĠáŁ¡áŁ©áŁł áŁ£
Ġprog ressed
Ġprog ressively
ĠáŁ¢áŁ¥ áŁłáŁłáŁłáŁł
ĠáŁ¡áŁ©áŁ¨ áŁ¥
ĠáŁ¡áŁ©áŁ¨ áŁ¤
ĠáŁ¡áŁ©áŁ¨ áŁ©
Ġclose ly
Ġrelations hip
ĠOn ly
ĠOn line
Ġpreced e
Ġpreced es
Ġjoin tly
Ġquar ried
Ġquar ters
Ġterrit ories
Ġmarket s
Ġoccur red
Ġoccur ring
Ġcirc uit
98 1
oe us
tc hes
Ã´ t
Ġáŀ ©
Ġáŀ °
áŀ« áŀŁ
áŀļáŀĺáŀĢ áŀĢ
áŀļáŀĺáŀĢ áŀł
ony m
Ġsou p
Ġcover ing
Ġcrim e
Ġcrim inal
Ġfla v
Ġfac ed
Ġfac ilities
Ġbl ouse
Ġpo em
Ġpri de
Ġpri vate
Ġpri zed
Ġpost hum
Ġmor phemes
Ġmass ive
Ġmission ary
Ġmunicip alities
Ġret reated
Ġrece ive
Ġep ics
Ġnat urally
Ġaspir ated
Ġstrong est
Ġalleg ations
Ġanim al
Ġtravel l
Ġroad s
Ġenc ounter
Ġenc ompass
Ġcapt ives
Ġtown s
Ġinterpre tation
Ġinterpre tations
Ġearli est
Ġemphas is
Ġlaw yers
Ġbelie ve
Ġactiv ities
Ġdevat a
Ġanalys is
Ġanalys es
24 3
tom orrow
ËĪ nuh
à¥ ĩ
à¥ ĭ
à¥ į
Ġshe et
Ġful l
Ġfall s
Ġfall ing
Ġban ning
Ġbro th
Ġput ting
Ġhous ed
ĠTrans port
ĠTrans formations
Ġrev iving
Ġrein st
Ġrequ ired
ĠSur vey
ĠSch olars
ĠMus ic
Ġprof ess
Ġprof ession
Ġext reme
Ġshort ened
Ġcontex ts
Ġunderst and
Ġjour nal
Ġrecogn ises
Ġteam s
Ġenter pr
ecut ion
Ġpredic ate
Ġpredic ative
Ġneighbour s
Ġimprove ment
Ġimprove ments
Ġkilomet re
har ata
hib ition
ij ing
wh ich
ÅĽ a
Ġve get
Ġve hicles
áŀĵáŀĺáŀĢ áŀĬáŀĽ
áŀĵáŀĺáŀĢ áŀĳáŀŁ
áŀĦáŀ§ áŀĢ
áŀıáŀĺáŀĢ áŀĬáŀĽ
áŀıáŀĺáŀĢ áŀĳáŀĽ
Ġturn ed
áŀĻáŀļáŀĶ áŀĶáŀĶ
áŀĻáŀļáŀĶ áŀĶáŀģ
Ġoffer ed
Ġoffer ing
Ġfire works
Ġfire wood
Ġfarm s
Ġborrow ed
Ġpra yers
Ġmok ots
ĠáŁ©áŁ ¡áŁł
Ġhost s
Ġiss ues
Ġiss ued
Ġisol ated
ĠAl though
Ġnet works
Ġnorm s
Ġnorm al
ĠPol ice
Ġ150 5
Ġstart ed
ĠMan agement
ĠMad alena
ĠMarch al
ĠáŁ¡áŁ¡áŁ ¨
ĠBe ijing
áŁ¢áŁ£ áŁ§
Ġ198 5
ĠHu ione
ĠHist orical
ĠHist oric
ĠVi hear
Ġlegend s
Ġvers us
Ġvers ions
Ġadop t
Ġexpress way
Ġconstitut ion
Ġattract s
Ġorient ed
Ġcoast al
Ġcomplete ly
Ġdiff ers
Ġvari ation
Ġsuccess ion
Ġsuccess fully
Ġpotential ly
ĠCathol ic
ĠEurope an
ĠEurope ans
03 5
Buddh ist
IC C
comm on
comm unist
áŀĵáŀļáŀĦ áŀļáŀĶ
Ġaud ience
Ġsl ings
Ġsl ight
Ġsun rise
Ġinj uries
Ġbound ary
Ġbound aries
Ġpast e
Ġpress ures
Ġdi am
Ġdaugh ters
ĠCon federation
Ġhot els
Ġhold ing
ĠKh m
ĠKh leang
Ġlay ers
Ġlos s
Ġlibr aries
Ġec osystem
stitut ion
ĠSre y
ĠSre pok
ĠPub lished
Ġgen ocide
Ġgirl s
Ġcondition s
áŀĦáŀŁáŀł áŀĤáŀĺáŀĵ
ades h
Ġdeg ree
Ġworks h
Ġexper iences
Ġexecut ed
ĠáŁ¡áŁ©áŁ¤ áŁ¥
Ġintens ification
Ġunivers al
Ġparticip ate
Ġmaintain ed
Ġtechn ology
Ġtechn iques
Ġfew er
Ġaccompan ies
Ġaccompan ied
Ġcolla pse
Ġcolla psed
Ġtransport ation
Ġplos ive
Ġearth works
Ġestablish ing
Ġestablish ment
Ġsettle ment
Ġsettle ments
Ġdemonst rated
Ġdemonst ratives
Ġgrad ual
Ġgrand eur
Ġcontroll ing
Ġbusiness es
ĠPlan ning
Ġflag s
Ġportra ying
ĠMusl im
Ġsyntact ically
æĹ¥ æ
Ġtarget s
Ġculmin ation
Ġculmin ating
Ġreconst ructed
14 1
High am
High land
Kamb u
Kamb oj
com ment
nÉ¨ Åĭ
sa ÊĶ
sh aped
áŀª áŀĸ
Ġtell s
reg ion
Ġsil ver
Ġcoun ter
Ġcrow ned
isc overed
Ġfer mented
Ġfer tility
Ġfoc us
Ġfund ed
Ġfrequ ent
Ġbal ust
Ġbom b
Ġbom bing
Ġbring ing
Ġmut ually
Ġdr ink
Ġdri ven
áŀĴáŀł áŀı
ley ball
ĠTech o
ĠTech nology
Ġlim ited
Ġel se
ĠAm ong
ĠAm nest
ĠSar ong
ĠSere i
ĠSub region
ĠPon hea
ulk iri
Ġconver ted
Ġstre tch
Ġstre tches
Ġstop ped
Ġstreng then
ĠMal ay
ĠMal ays
ĠMar riage
ĠMond ulkiri
ĠáŁ¡áŁ§ áŁ¢áŁ£áŁ§
ĠBrah ma
Ġval ues
Ġvict ory
Ġvict ims
Ġpros per
Ġ194 1
Ġ194 5
Ġextend ing
Ġsec ular
Ġsec urity
ĠChrist ians
ĠInt angible
ĠDiv Äģ
ĠDiv orced
ĠGer man
ĠGer many
Ġdiss ent
Ġdiss olved
Ġdisappe ared
Ġunderg one
teg rated
Ġprec ise
Ġremn ant
Ġremn ants
Ġjew elry
Ġjew ellery
Ġphot ograph
Ġattem pt
Ġattem pts
Ġteach ings
Ġaccount ing
Ġcultiv ation
Ġcoll ars
Ġcoff in
Ġcoff ee
Ġincorpor ated
Ġweak ened
Ġinvestig ations
Ġconcent ric
Ġconcent rated
Ġoblig atory
Ġcurrent ly
Ġdefe at
Ġmotorcy cle
Ġmotorcy cles
Ġloan words
Ġsouvenir s
Ġcelebr ate
Ġcelebr ates
Ġfinan cial
Ġdiph thongs
Ġdiph thong
Ġnominal isation
áŀļáŀĢáŀĶáŀļáŀĶ áŀļ
Ġdifficult y
Adject ives
Adject ival
ĠQu ay
Ġachie ved
Ġachie vements
Ġpuppet s
Ġrickshaw s
De van
Tra ditionally
bre lla
col onial
cross ing
government al
uet te
vol ent
Ġx yloph
ĠáŀĴáŀĵ áŀī
Ġ.. .áŁĶ
áŀĢáŀ¬ áŀĺ
Ġtab oos
Ġtort ure
Ġaps aras
áŀĻáŀ¥áŀİ áŀĳ
Ġcred ited
Ġcreat ures
Ġcustom s
Ġingred ients
Ġbri de
Ġbrace lets
Ġbless ing
Ġpag odas
Ġpavil ion
Ġmat ch
Ġmod el
Ġdwell ing
Ġdynast y
ĠCl imate
ĠCambod ge
Ġhum idity
Ġharm ony
Ġretain ed
Ġlink ed
Ġeas y
ĠAg ency
ĠSw adesh
rob reweries
ĠProm otion
ĠPras at
Ġgest ures
Ġgild ed
Ġconve yed
Ġconce pts
ĠMong kol
ĠMinist er
ĠMunicip al
Ġorph ans
ĠWik ivoy
Ġvide o
ĠFin ance
ĠFact ories
ocar bon
Ġexclus ively
ĠHigh am
ĠVol ume
Ġnecess ary
ĠDh arma
Ġconserv ative
Ġtraff ic
Ġregul atory
Ġpend ant
Ġresid ents
Ġmonaster y
ĠIndones ia
Ġenj oy
Ġenact ed
Ġexpect ancy
Ġmillenn ium
Ġrare ly
Ġdistingu ishing
Ġcolum ns
Ġtransform ation
Ġinterv iew
Ġ186 5
Ġaccept ed
Ġagric ulture
Ġoccas ions
Ġweek ly
Ġwealth y
ĠRober t
Ġsubsequ ent
á¹Ń a
Ġcourty ards
ĠCoed es
Ġdestro yed
Äģg arÄ«
Ġmultip arty
Ġloose ly
ĠAustral ia
Ġsucceed ed
Ġfacilit ated
Ġdiplom atic
Ġreinterpre tations
Ġsustain able
Ġà¤ķ à¤®
Ġnucle us
Arch aeological
Ġambig uous
Ġpromin ently
Ġhabit ats
Ġsuffici ently
ĠProtest ant
Ġhierarch ical
ĠArchaeolog ists
Ġcrackdown s
(? )
AD HO
CIN PEC
Ed ge
GAC P
Geograph ic
Kamp uchea
Rel ative
Viet namese
bo ok
caËĲ p
fac ing
fund ed
gl utin
kÃ´ r
lar gest
nov ation
oËĲ saÊĶ
pac ed
paren t
yes terday
Ã¶pp en
æŁ ¬
èı ¯
Ġil legal
Ġum brella
Ġill ust
Ġide as
Ġêľ Ľ
áŀļáŀ¬ áŀŁ
Ġtou ch
Ġtas ks
Ġtall est
Ġtwent y
Ġahe ad
includ ing
Ġthems elves
reem an
Ġsen ior
Ġsan ctions
Ġsle ep
Ġsate llite
Ġsere y
Ġcle an
Ġches s
ĠcÉĳ Åĭ
orcer ers
Ġinher ited
Ġbag uette
ĠbÃ¡ nh
Ġbiodi versity
arach a
Ġmic robreweries
Ġmand ate
Ġmart ial
icel ess
leist ocene
ĠCout o
ĠCamk o
ĠCOV ID
odhar apura
Ġreve al
Ġrectang ular
ilater al
ĠKol a
ĠKake y
ĠKomph us
ambhu va
Ġliv estock
Ġlingu ists
Ġever green
Ġeart hen
Ġeld ers
Ġelis ion
Ġelab orate
ĠAps ara
ĠApost olic
ĠAuthor ity
ĠSiv utha
ĠSpe an
ĠSway ambhuva
ĠSaf eguarding
ĠSaig on
Ġnav igable
Ġnick nam
ĠPra chinburi
ĠPail in
ĠPurs at
Ġbeaut iful
áŀĵáŀĢáŀ¯ áŀĢáŀĳ
Ġconclud ed
Ġconnot ation
Ġforfe iture
Ġstup a
ĠRese arch
ĠMain land
ĠBel ow
ĠBass ac
Ġorchest ra
ĠWashing ton
Ġvulner able
Ġprote in
Ġproxim ity
Ġanyth ing
Ġkanor ng
Ġkuy teav
Ġsupre me
ĠFUN CINPEC
ĠFebru ary
Ġrone at
áŀĵáŀĤáŀļáŀĤ áŀĺ
ĠVilla ge
ĠNik aya
clock wise
ĠChild ren
ĠInteg rity
Ġarrest ed
ĠDav id
ĠEdition s
ĠEink osei
Ġintric ate
Ġintellig ible
Ġintellect ual
Ġubiqu itous
ĠLank a
ĠLibr aries
ĠLiber ation
Ġunmar ried
Ġuninhab ited
Ġabug ida
Ġconsolid ated
ĠOlymp ic
Ġspons ored
ĠGener al
ĠGov Pubs
Ġregener ating
Ġrepatri ation
Ġoversee ing
Ġovergrow th
Ġoverwhel ming
conson ant
Ġmonoph thongs
Ġcommission ed
Ġunderto ok
Ġexplic it
Ġradi ocarbon
Ġmaxim um
Ġmahor i
Ġquick ly
Ġfamili ar
Ġcoordin ated
ĠDefen se
ĠDepart ment
Ġoutcom es
Ġrestaur ants
Ġcorrid ors
ĠAntÃ³n io
ĠMahab harata
ĠMajum dar
ĠáŁ¡áŁ¥áŁ©áŁ ¤
ĠYaÅĽ odharapura
Ġmanufact uring
Ġconfisc ated
Ġautomob ile
Ġskyscra per
Ġmultitud e
Ġposthum ously
ĠAmnest y
Devan ÄģgarÄ«
Ġxyloph one
ĠWikivoy age
