{"<|endoftext|>":0,"<|pad|>":1,"!":2,"\"":3,"#":4,"$":5,"%":6,"&":7,"'":8,"(":9,")":10,"*":11,"+":12,",":13,"-":14,".":15,"/":16,"0":17,"1":18,"2":19,"3":20,"4":21,"5":22,"6":23,"7":24,"8":25,"9":26,":":27,";":28,"<":29,"=":30,">":31,"?":32,"@":33,"A":34,"B":35,"C":36,"D":37,"E":38,"F":39,"G":40,"H":41,"I":42,"J":43,"K":44,"L":45,"M":46,"N":47,"O":48,"P":49,"Q":50,"R":51,"S":52,"T":53,"U":54,"V":55,"W":56,"X":57,"Y":58,"Z":59,"[":60,"\\":61,"]":62,"^":63,"_":64,"`":65,"a":66,"b":67,"c":68,"d":69,"e":70,"f":71,"g":72,"h":73,"i":74,"j":75,"k":76,"l":77,"m":78,"n":79,"o":80,"p":81,"q":82,"r":83,"s":84,"t":85,"u":86,"v":87,"w":88,"x":89,"y":90,"z":91,"{":92,"|":93,"}":94,"~":95,"¡":96,"¢":97,"£":98,"¤":99,"¥":100,"¦":101,"§":102,"¨":103,"©":104,"ª":105,"«":106,"¬":107,"®":108,"¯":109,"°":110,"±":111,"²":112,"³":113,"´":114,"µ":115,"¶":116,"·":117,"¸":118,"¹":119,"º":120,"»":121,"¼":122,"½":123,"¾":124,"¿":125,"À":126,"Á":127,"Â":128,"Ã":129,"Ä":130,"Å":131,"Æ":132,"Ç":133,"È":134,"É":135,"Ê":136,"Ë":137,"Ì":138,"Í":139,"Î":140,"Ï":141,"Ð":142,"Ñ":143,"Ò":144,"Ó":145,"Ô":146,"Õ":147,"Ö":148,"×":149,"Ø":150,"Ù":151,"Ú":152,"Û":153,"Ü":154,"Ý":155,"Þ":156,"ß":157,"à":158,"á":159,"â":160,"ã":161,"ä":162,"å":163,"æ":164,"ç":165,"è":166,"é":167,"ê":168,"ë":169,"ì":170,"í":171,"î":172,"ï":173,"ð":174,"ñ":175,"ò":176,"ó":177,"ô":178,"õ":179,"ö":180,"÷":181,"ø":182,"ù":183,"ú":184,"û":185,"ü":186,"ý":187,"þ":188,"ÿ":189,"Ā":190,"ā":191,"Ă":192,"ă":193,"Ą":194,"ą":195,"Ć":196,"ć":197,"Ĉ":198,"ĉ":199,"Ċ":200,"ċ":201,"Č":202,"č":203,"Ď":204,"ď":205,"Đ":206,"đ":207,"Ē":208,"ē":209,"Ĕ":210,"ĕ":211,"Ė":212,"ė":213,"Ę":214,"ę":215,"Ě":216,"ě":217,"Ĝ":218,"ĝ":219,"Ğ":220,"ğ":221,"Ġ":222,"ġ":223,"Ģ":224,"ģ":225,"Ĥ":226,"ĥ":227,"Ħ":228,"ħ":229,"Ĩ":230,"ĩ":231,"Ī":232,"ī":233,"Ĭ":234,"ĭ":235,"Į":236,"į":237,"İ":238,"ı":239,"Ĳ":240,"ĳ":241,"Ĵ":242,"ĵ":243,"Ķ":244,"ķ":245,"ĸ":246,"Ĺ":247,"ĺ":248,"Ļ":249,"ļ":250,"Ľ":251,"ľ":252,"Ŀ":253,"ŀ":254,"Ł":255,"ł":256,"Ń":257,"áŀ":258,"áŁ":259,"áŁĴ":260,"áŀ¶":261,"áŀĵ":262,"áŀļ":263,"áŀĢ":264,"áŀĶ":265,"áŀĺ":266,"áŀŁ":267,"áŀĦ":268,"áŀı":269,"Ġt":270,"Ġa":271,"he":272,"áŀĽ":273,"in":274,"áŀĳ":275,"áŀĸ":276,"áŀĩ":277,"áŀĻ":278,"áŀ·":279,"áŁĨ":280,"áŁĭ":281,"áŀ»":282,"áŀĬ":283,"er":284,"Ġthe":285,"on":286,"áŁģ":287,"re":288,"áŀħ":289,"áŀ¸":290,"Ġo":291,"áŀĤ":292,"âĢ":293,"áŀľ":294,"áŁĤ":295,"nd":296,"âĢĭ":297,"at":298,"Ġs":299,"Ġc":300,"ed":301,"en":302,"áŀ¼":303,"is":304,"áŀ¾":305,"or":306,"es":307,"it":308,"áŀ¢":309,"al":310,"Ġof":311,"áŁĦ":312,"Ġin":313,"an":314,"Ġw":315,"áŁĩ":316,"áŀģ":317,"Ġand":318,"Ġf":319,"áŀ½":320,"Ġb":321,"Ġp":322,"áŀİ":323,"áŁħ":324,"ar":325,"ou":326,"áŁĶ":327,"ing":328,"Ġm":329,"ion":330,"am":331,"om":332,"ic":333,"áŀ¶áŁĨ":334,"as":335,"Ġd":336,"áŀĹ":337,"áŀĴ":338,"áŀł":339,"Ġto":340,"le":341,"áŀī":342,"ĠC":343,"od":344,"áŀ¹":345,"ent":346,"ĠáŁ":347,"Ġáŀĵ":348,"Ġh":349,"áŀļáŀĶ":350,"ĠT":351,"áŀĲ":352,"áŀĢáŀĺ":353,"ct":354,"áŁĥ":355,"áŀķ":356,"áŁĢ":357,"Ġre":358,"il":359,"áŁł":360,"Ġis":361,"ĠK":362,"amb":363,"Ġl":364,"Ġe":365,"ve":366,"odi":367,"Ġ(":368,"st":369,"ĠA":370,"ambodi":371,"ĠS":372,"áŁī":373,"Ġn":374,"áŁĲ":375,"ro":376,"ation":377,"ĠP":378,"mer":379,"ly":380,"áŀĨ":381,"Ġth":382,"ĠCambodi":383,"Ġbe":384,"hmer":385,"¡áŁ":386,"ur":387,"ch":388,"ver":389,"áŀĶáŀĵ":390,"em":391,"ol":392,"Ġas":393,"áŁĦáŁĩ":394,"Ġg":395,"áŁģáŁĩ":396,"th":397,"Ġ1":398,"áŀļáŀĬ":399,"ĠKhmer":400,"ce":401,"ri":402,"áŀº":403,"áŀŁáŀĺ":404,"áŀ¡":405,"áŀĵáŀĢ":406,"ĠThe":407,"ra":408,"ĠáŀĢ":409,"us":410,"áŀĵáŀĶ":411,"ist":412,"áŀĭ":413,"Ġby":414,"ul":415,"et":416,"áŀļáŀĩ":417,"ow":418,"Ġare":419,"áŀļáŀĳ":420,"Ġcon":421,"ĠáŀĬ":422,"ĠCambodia":423,"Ġfor":424,"ĠI":425,"ng":426,"Ġst":427,"ith":428,"ge":429,"Ġ2":430,"rom":431,"áŀļáŀĢ":432,"áŀľáŀĶ":433,"ĠR":434,"áŀļáŀĶáŀŁ":435,"im":436,"la":437,"áŀĦáŀĳ":438,"áŀ¢áŀĦ":439,"ter":440,"ĠáŀĶ":441,"áŀĦáŀĢ":442,"Ġwith":443,"áŀĦáŀĶ":444,"ig":445,"áŀĺáŀĢ":446,"ap":447,"ĠáŀŁ":448,"id":449,"Ġon":450,"ĠM":451,"áŀĦáŀŁ":452,"un":453,"Ġfrom":454,"op":455,"ect":456,"áŁĪ":457,"est":458,"áŀĦáŀĵ":459,"ĠáŁ¡áŁ":460,"Ġwh":461,"ir":462,"her":463,"ity":464,"ad":465,"Ġwas":466,"ot":467,"ĠB":468,"ay":469,"iv":470,"ut":471,"áŁ¢":472,"áŀĻáŀĢ":473,"res":474,"Ġ20":475,"ud":476,"áŀľáŀı":477,"áŁı":478,"áŀĺáŀļ":479,"áŀĩáŀĵ":480,"Ġthat":481,"ment":482,"os":483,"kor":484,"©áŁ":485,"ers":486,"Ġor":487,"Ġal":488,"ngkor":489,"'s":490,"ive":491,"ĠáŀĤ":492,"ate":493,"ĠW":494,"Ġáŀĺ":495,"áŁį":496,"Ġv":497,"Ġáŀĸ":498,"Ġpro":499,"Ġde":500,"áŁīáŀ¶":501,"ial":502,"áŀĺáŀĵ":503,"áŁłáŁł":504,"Ġit":505,"oun":506,"ain":507,"ies":508,"áŀıáŀĵ":509,"Ġan":510,"áŀĽáŀĶ":511,"Ġk":512,"Ġsu":513,"áŀĵáŀĵ":514,"ated":515,"ts":516,"ong":517,"our":518,"áŀļáŀŁ":519,"ĠAngkor":520,"ĠF":521,"áŁĹ":522,"áŀĻáŀĶ":523,"ang":524,"áŁĬ":525,"áŀŁáŀĵ":526,"ore":527,"el":528,"and":529,"ple":530,"áŀļáŀł":531,"Ġr":532,"Ġ19":533,"Ġat":534,"ak":535,"ces":536,"áŀĪ":537,"áŀļáŀĺ":538,"00":539,"áŀĵáŀĬ":540,"áŀļáŀĸ":541,"Ġcom":542,"Ġwor":543,"ure":544,"áŁ¡áŁ":545,"Ġáŀģ":546,"all":547,"hn":548,"áŀĦáŀı":549,"Ġ\"":550,"áŀĦáŀĸ":551,"ich":552,"ab":553,"oc":554,"ast":555,"áŀĦáŀĩ":556,"ical":557,"Ġex":558,"rou":559,"Ġhas":560,"if":561,"um":562,"pe":563,"ort":564,"áŀĻáŀŁ":565,"áŀĻáŀĸ":566,"ous":567,"áŁĮ":568,"áŀĵáŀĤ":569,"Ġha":570,"art":571,"Ġwhich":572,"ru":573,"ĠH":574,"ĠV":575,"áŀıáŀŁ":576,"ill":577,"ĠCambodian":578,"age":579,"áŁ¥":580,"ĠáŁ¢":581,"áŀĦáŀ¢":582,"ĠTh":583,"ry":584,"ĠN":585,"Ġus":586,"out":587,"áŀļáŀĵ":588,"áŀĢáŀĵ":589,"cl":590,"qu":591,"hnom":592,"Ġáŀı":593,"áŀļáŀı":594,"áŀĻáŀĵ":595,"Ġse":596,"áŀĮ":597,"Ġtem":598,"ac":599,"Ġáŀĳ":600,"áŀĵáŀĩ":601,"áŀĻáŀĺ":602,"enh":603,"áŀļáŀİ":604,"áŀĦáŀĬ":605,"ĠPenh":606,"ost":607,"áŀĥ":608,"áŀĽáŀĺ":609,"pp":610,"Ġcent":611,"Ġ/":612,"Ġhave":613,"ition":614,"ĠCh":615,"Ġáŀļ":616,"Ġle":617,"ount":618,"ĠSi":619,"Ġne":620,"Ġáŀ¢":621,"áŀ±":622,"Ġáŀĩ":623,"ese":624,"áŀĻáŀĬ":625,"gh":626,"áŀĵáŀŁ":627,"áŀıáŀĺ":628,"ome":629,"ĠIn":630,"áŁ¡":631,"áŀĵáŀĳ":632,"áŀıáŀĢ":633,"áŀĦáŀĺ":634,"Ġar":635,"áŀĽáŀĵ":636,"ld":637,"áŁ£":638,"ĠPhnom":639,"The":640,"áŀļáŀľ":641,"ĠáŁ¡áŁ©áŁ":642,"iet":643,"les":644,"so":645,"áŀĵáŀħ":646,"ction":647,"se":648,"áŀ¶âĢĭ":649,"áŀĦáŀħ":650,"Ġcl":651,"ĠD":652,"ĠE":653,"ant":654,"áŀĢáŀĬ":655,"áŀĺáŀĶ":656,"áŀĦáŀģ":657,"áŁĭâĢĭ":658,"ren":659,"Ġint":660,"áŁīáŀ»":661,"over":662,"áŁ¤":663,"ĠRe":664,"Ġáŀħ":665,"áŀĢáŀŁ":666,"ere":667,"áŁīáŁĤ":668,"ational":669,"áŀļáŀħ":670,"áŀĬáŀĽ":671,"áŁĬáŀ¸":672,"Ġch":673,"ult":674,"tern":675,"igh":676,"Ġ201":677,").":678,"pt":679,"áŀĶáŀı":680,"ary":681,"ran":682,"Ġsy":683,"áŀ¢áŀĵ":684,"Ġbeen":685,"ced":686,"ther":687,"Ġu":688,"ĠWat":689,"low":690,"Ġhe":691,"áŀļáŀĦ":692,"áŀ»áŁĨ":693,"angu":694,"ĠL":695,"Ġun":696,"Ġwere":697,"dh":698,"ĠU":699,"áŀĽáŀĢ":700,"ine":701,"áŀĸáŀŁ":702,"Ġits":703,"áŁ¦":704,"áŀĢáŀļ":705,"Ġab":706,"Ġsh":707,"Ġcont":708,"Ġalso":709,"Ġtemple":710,"nam":711,"áŀĦáŀļ":712,"áŀĴáŀĺ":713,"Ġrel":714,"Ġcons":715,"ok":716,"ĠO":717,"áŀļáŀĹ":718,"áŀĦáŀĨ":719,"Ġpart":720,"ire":721,"áŀ¶áŁĶ":722,"áŀĵáŀļ":723,"áŀĵáŀı":724,"Ġsp":725,"ism":726,"Ġper":727,"ear":728,"áŀĸáŀĦ":729,"ard":730,"ass":731,"opul":732,"ĠViet":733,"av":734,"áŀ§":735,"áŀŁáŀı":736,"áŀĤáŀļ":737,"uddh":738,"),":739,"ince":740,"áŀħáŀĺ":741,"áŀĦáŀĳáŀĵ":742,"clud":743,"vel":744,"Ġver":745,"ite":746,"ĠVietnam":747,"ian":748,"ust":749,"áŀ¯":750,"áŀĺáŀĳ":751,"ater":752,"ĠáŁł":753,"ag":754,"red":755,"ally":756,"Ġinclud":757,"ations":758,"ĠBuddh":759,"Ġcentur":760,"anguage":761,"ject":762,"ĠG":763,"Ġy":764,"áŀ»áŁĩ":765,"áŀħáŀĢ":766,"Ġcity":767,"ord":768,"ber":769,"dition":770,"áŀ²":771,"Ġtra":772,"áŀĽáŀĳ":773,"ĠáŁĶ":774,"áŀĵáŀĸ":775,"Ġcount":776,"Ġpopul":777,"ble":778,"cc":779,"ie":780,"hen":781,"Ġmost":782,"Ġnot":783,"áŀĶáŀĦ":784,"áŀĦáŀĽ":785,"áŀĦáŀĤ":786,"áŀĽáŀŁ":787,"ions":788,"Ġdis":789,"ail":790,"Ġad":791,"áŀħáŀĵ":792,"ence":793,"ound":794,"Ġreg":795,"Ġrep":796,"ild":797,"ign":798,"Ġword":799,"ia":800,"ip":801,"mp":802,"og":803,"ÉĻ":804,"ĠJ":805,"Ġáŀł":806,"áŀ¿":807,"ĠReap":808,"Ġro":809,"áŀĻáŀħ":810,"Ġser":811,"Ġind":812,"uring":813,"áŀĺáŀł":814,"one":815,"ative":816,"ff":817,"áŀ¥":818,"áŀıáŀİ":819,"áŀĻáŀĽ":820,"áŀħáŀĩ":821,"ame":822,"ice":823,"ĠAs":824,"ural":825,"Ġáŀľ":826,"áŁ§":827,"ruct":828,"áŀ¸âĢĭ":829,"Ġover":830,"Ġother":831,"áŀĤáŀħ":832,"round":833,"con":834,"lis":835,"Ġim":836,"áŁ¨":837,"áŀŁáŀĦ":838,"áŀŁáŀĢáŀĺ":839,"áŀĻáŀĩ":840,"Ġlanguage":841,"ide":842,"Ġcountry":843,"ĠáŀĽ":844,"áŀŁáŀļ":845,"Ġtour":846,"Ġpe":847,"ress":848,"Ġsuch":849,"overn":850,"áŀıáŀĬ":851,"áŀĽáŀĬ":852,"âĢĵ":853,"Ġinf":854,"Ġfol":855,"Ġres":856,"ĠIt":857,"Ġused":858,"ĠSiem":859,"Ġinto":860,"Khmer":861,"ten":862,"áŀĵáŀķ":863,"áŀļáŀĤ":864,"nder":865,"áŁħâĢĭ":866,"Ġmon":867,"een":868,"áŀĶáŀŁ":869,"hed":870,"áŀĽáŀĸ":871,"áŀĻáŀĳ":872,"ĠInd":873,"Ġprov":874,"Ġcomm":875,"per":876,"wo":877,"ĠáŀĹ":878,"áŀĵáŀĺ":879,"áŀĢáŀĶ":880,"áŀıáŀĶ":881,"ind":882,"Ġthey":883,"Ġtheir":884,"Ġsome":885,"Ġcan":886,"ance":887,"Ġpr":888,"Ġthis":889,"own":890,"ach":891,"oth":892,"áŀĵáŀ¢":893,"áŀĺáŀĺ":894,"áŀıáŀļáŀĩ":895,"áŀĤáŀĦ":896,"Ġbut":897,"Ġpla":898,"Cambodi":899,"bs":900,"cri":901,"ks":902,"ures":903,"áŀŁáŀħ":904,"Ġmore":905,"ists":906,"ople":907,"ell":908,"fter":909,"ween":910,"Ġen":911,"áŀļáŀģ":912,"áŀĢáŀĳ":913,"áŀĢáŀ¢":914,"áŀĽáŀĩ":915,"Ġspe":916,"Ġcap":917,"Ġmay":918,"Ġbet":919,"Ġgovern":920,"Ġcentury":921,"ood":922,"áŁ©":923,"áŀļáŀĽ":924,"Ġmar":925,"Ġtow":926,"ments":927,"000":928,"Ġfollow":929,"In":930,"Ġ[":931,"áŀļáŀĻ":932,"áŀĦáŀľ":933,"áŀĸáŀĵ":934,"áŀĤáŀĺ":935,"Ġme":936,"amp":937,"áŀłáŀĵ":938,"Ġev":939,"áŀĩáŀĵáŀĩ":940,"ose":941,"Ġbetween":942,"fer":943,"ile":944,"rit":945,"ral":946,"uc":947,"ved":948,"ree":949,"ors":950,"ings":951,"Ġhad":952,"Ġlar":953,"Ġunder":954,"ious":955,"ph":956,"áŀĢáŀĢ":957,"ital":958,"any":959,"Ġ202":960,"Ġnew":961,"Ġpartic":962,"Ġyear":963,"act":964,"lla":965,"te":966,"ub":967,"áŀĳáŀĵ":968,"áŀĳáŀŁ":969,"áŀľáŀĺ":970,"Ġpre":971,"ict":972,"Ġexp":973,"rench":974,"Ġ3":975,"áŀŁáŀĹ":976,"Ġtwo":977,"áŁĭáŁĶ":978,"ouge":979,"Ġduring":980,"Ġbec":981,"ĠRouge":982,"velop":983,"Ġpopulation":984,"/,":985,"ai":986,"áŀļáŀ¢":987,"áŀĢáŀĩ":988,"áŀĶáŀĬ":989,"áŀıáŀĳ":990,"ates":991,"Ġrem":992,"Ġform":993,"ĠFrench":994,"ove":995,"ue":996,"Ġ9":997,"Ġj":998,"Ġri":999,"áŀĢáŀĽ":1000,"ern":1001,"Ġinv":1002,"use":1003,"Ġconst":1004,"Ġ200":1005,"gin":1006,"ik":1007,"áŀĶáŀī":1008,"áŀĺáŀĩ":1009,"áŀıáŀĸ":1010,"áŀĩáŀĴ":1011,"áŀľáŀĢ":1012,"ory":1013,"Ġbas":1014,"Ġph":1015,"áŀīáŀĵ":1016,"olog":1017,"Ġone":1018,"ives":1019,"able":1020,"áŁĮáŁĴ":1021,"ack":1022,"áŀļáŀĴ":1023,"ath":1024,"ans":1025,"Ġmain":1026,"Ġmill":1027,"ĠáŁ£":1028,"Ġrec":1029,"ily":1030,"ived":1031,"Ġcomp":1032,"áŁ¡áŁ©áŁ":1033,"rans":1034,"ĠVietnamese":1035,"Ġincluding":1036,"ĠBuddhist":1037,"Ġtradition":1038,"ci":1039,"port":1040,"áŀ¬":1041,"áŀļáŀĢáŀĺ":1042,"áŀĢáŀĸ":1043,"áŀĶáŀĶ":1044,"áŀĸáŀĽ":1045,"orm":1046,"Ġdes":1047,"Ġele":1048,"Ġthan":1049,"áŁĦáŁĩâĢĭ":1050,"cess":1051,"yal":1052,"ĠáŀĢáŀĺ":1053,"áŀļáŀľáŀı":1054,"áŀĢáŀģ":1055,"áŀĺáŀı":1056,"áŀĺáŀĸ":1057,"áŀĦáŀŁáŀĺ":1058,"áŀĦáŁĹ":1059,"heast":1060,"Ġoff":1061,"Ġfore":1062,"Ġhis":1063,"ĠAr":1064,"áŀĺáŀĢáŀĸ":1065,"irst":1066,"Ġ199":1067,"Ġatt":1068,"rough":1069,"ĠChin":1070,"lo":1071,"áŀļáŀļ":1072,"áŀĢáŀĤ":1073,"áŀĺáŀŁ":1074,"áŀĺáŀĬ":1075,"áŀĻáŀ¢":1076,"ons":1077,"áŀľáŀĳ":1078,"Ġwhen":1079,"Ġbu":1080,"ĠKing":1081,"áŀĭáŀĶ":1082,"resent":1083,"ternational":1084,"Cambodia":1085,"ek":1086,"iz":1087,"nown":1088,"Ġra":1089,"áŀĵáŀĽ":1090,"áŀĦáŀĹ":1091,"Ġte":1092,"áŀĽáŀļ":1093,"áŀĻáŀģ":1094,"áŀĤáŀĵ":1095,"áŀĤáŀı":1096,"orth":1097,"ess":1098,"Ġfirst":1099,"Ġpol":1100,"ough":1101,"Ġwho":1102,"Ġ197":1103,"ake":1104,"aller":1105,"Ġarch":1106,"Ġpeople":1107,"Ġgovernment":1108,"fore":1109,"gest":1110,"iod":1111,"lic":1112,"ples":1113,"ted":1114,"ĠáŁĴ":1115,"Ġáŀ¢áŀĦ":1116,"áŀĽáŀĤ":1117,"áŀħáŀĶ":1118,"Ġfe":1119,"áŀīáŀĸ":1120,"ular":1121,"áŁĪâĢĭ":1122,"ays":1123,"ains":1124,"Ġchild":1125,"Ġabout":1126,"Ġcapital":1127,"bject":1128,"ËĲ":1129,"ĠâĢĭ":1130,"Ġest":1131,"áŀĺáŀģ":1132,"Ġacc":1133,"Ġafter":1134,"áŀľáŀĩ":1135,"Ġcult":1136,"ise":1137,"Ġma":1138,"row":1139,"áŀĵáŀĢáŀŁ":1140,"ime":1141,"Ġrelig":1142,"Ġperiod":1143,"Ġwords":1144,"cript":1145,")áŁĶ":1146,"iver":1147,"Ġqu":1148,"áŀĵáŀĹ":1149,"áŀĵáŀĴ":1150,"áŀĦáŀķ":1151,"áŀĽáŀı":1152,"Ġori":1153,"Ġsc":1154,"ens":1155,"itect":1156,"Ġmany":1157,"Ġdist":1158,"odu":1159,"ĠSout":1160,"Ġnum":1161,"ower":1162,"Ġarea":1163,"Ġstruct":1164,"Ġking":1165,"ĠThis":1166,"Ġclass":1167,"Ġsylla":1168,"ief":1169,"Ġmillion":1170,"ps":1171,"áŀĵáŀ¡":1172,"áŀĢáŀı":1173,"áŀĶáŀħ":1174,"here":1175,"reat":1176,"áŀľáŀŁ":1177,"Ġcol":1178,"arm":1179,"outh":1180,"Ġmi":1181,"icial":1182,"odern":1183,"áŁģáŁĩáŁĶ":1184,"Ġdec":1185,"Ġdevelop":1186,"Ġwork":1187,"alled":1188,"ĠThail":1189,"ĠáŁ¡áŁ©áŁ§":1190,"ĠáŁłáŁ¢":1191,"ĠThailand":1192,"\".":1193,"Ã©":1194,"ĠáŀļáŀĬ":1195,"Ġtrans":1196,"áŀĩáŀĢ":1197,"áŀĻáŀľáŀĺ":1198,"Ġthere":1199,"ating":1200,"Ġsur":1201,"its":1202,"ited":1203,"áŀ¢áŀı":1204,"Ġfam":1205,"áŁĥâĢĭ":1206,"ĠSap":1207,"rim":1208,"\",":1209,"50":1210,"cial":1211,"gan":1212,"ha":1213,"lu":1214,"ual":1215,"ĠáŀĻ":1216,"Ġent":1217,"ĠáŀĲ":1218,"Ġáŀķ":1219,"áŀĢáŀħ":1220,"áŀĶáŀĢ":1221,"áŀĶáŀĺ":1222,"áŀĶáŀĳ":1223,"áŀŁáŀĳ":1224,"áŀıáŀĩ":1225,"Ġter":1226,"Ġsince":1227,"Ġsite":1228,"ener":1229,"ences":1230,"Ġinter":1231,"Ġfound":1232,"arch":1233,"Ġloc":1234,"stem":1235,"ĠSt":1236,"Ġthree":1237,"Ġgaller":1238,"rib":1239,"imate":1240,"áŀĦáŀŁáŀĦ":1241,"Ġkm":1242,"Ġknown":1243,"Ġsupp":1244,"Ġuse":1245,"ight":1246,"mpire":1247,"ike":1248,"Ġarchitect":1249,"han":1250,"ied":1251,"jor":1252,"til":1253,"ĠáŀĨ":1254,"áŀĶáŀļ":1255,"áŀĻáŀĹ":1256,"Ġco":1257,"ities":1258,"Ġinc":1259,"áŀģáŀİ":1260,"Ġboth":1261,"Ġpl":1262,"ouk":1263,"Ġthrough":1264,"old":1265,"ade":1266,"Ġvow":1267,"Ġcomple":1268,"ific":1269,"ruction":1270,"ĠDe":1271,"Ġconson":1272,"ages":1273,"Ġroyal":1274,"lish":1275,"Ġmark":1276,"ible":1277,"mb":1278,"Ġ8":1279,"áŀĵáŀŁáŀĺ":1280,"áŀĶáŀĴáŀĺ":1281,"áŀĦáŀİ":1282,"áŀĦáŀĴ":1283,"áŀĻáŀļ":1284,"Ġout":1285,"áŁĤâĢĭ":1286,"Ġinst":1287,"áŀİáŀı":1288,"omin":1289,"ĠTon":1290,"Ġear":1291,"ĠSen":1292,"Ġ18":1293,"Ġvis":1294,"ouse":1295,"ĠHind":1296,"Ġsecon":1297,"áŀ¥áŀİ":1298,"Ġyears":1299,"Ġmajor":1300,"ĠHindu":1301,"Ġsecond":1302,"ew":1303,"pical":1304,"ĠáŀŁáŀĺ":1305,"áŀĵáŀģ":1306,"áŀļáŀ¡":1307,"áŀĶáŀĤ":1308,"áŀŁáŀĸ":1309,"áŀŁáŀĩ":1310,"áŀıáŀģ":1311,"Ġac":1312,"Ġag":1313,"Ġaround":1314,"reas":1315,"áŀ¸áŁĶ":1316,"ale":1317,"als":1318,"Ġoften":1319,"ants":1320,"Ġpos":1321,"Ġdance":1322,"Ġhist":1323,"Ġlater":1324,"Ġnoun":1325,"ĠPro":1326,"Ġgrou":1327,"hern":1328,"áŁ¢áŁłáŁł":1329,"áŀļáŀłáŀĺ":1330,"Ġtemples":1331,"ĠSihan":1332,"Ġsystem":1333,"ĠChinese":1334,"Ġorigin":1335,"ĠSoutheast":1336,"Ġvowel":1337,"ĠSihanouk":1338,"ace":1339,"ning":1340,"Â°":1341,"áŀŁáŀĢ":1342,"áŀŁáŀĬ":1343,"áŀĦáŀ¡":1344,"áŀıáŀķ":1345,"Ġty":1346,"áŀĩáŀĶ":1347,"áŀĻáŀĤ":1348,"áŀĻáŀĢáŀĺ":1349,"ered":1350,"áŀħáŀĳ":1351,"Ġcalled":1352,"áŀ¢áŀŁ":1353,"Ġins":1354,"Ġwall":1355,"Ġdial":1356,"Ġdif":1357,"áŀĴáŀĵ":1358,"Ġend":1359,"áŁīáŁģ":1360,"Ġbefore":1361,"ĠThere":1362,"áŀĭáŀĺáŀĵ":1363,"Ġwhile":1364,"Ġprot":1365,"pend":1366,"ĠNational":1367,"Ġup":1368,"Ġrepresent":1369,"Ġdialect":1370,"60":1371,"dom":1372,"oin":1373,"ras":1374,"ty":1375,"tain":1376,"áŀĵáŀĨ":1377,"áŀĵáŀ¢áŀĵ":1378,"áŀŁáŀĻ":1379,"áŀĦáŀĲ":1380,"áŀĦáŀĢáŀĺ":1381,"áŀĦáŀļáŀĬ":1382,"áŀıáŀı":1383,"hes":1384,"áŀĻáŀĲ":1385,"áŀĻáŀ¢áŀĦ":1386,"áŀľáŀĦ":1387,"Ġcar":1388,"Ġmodern":1389,"Ġdo":1390,"ents":1391,"ract":1392,"imes":1393,"Ġcentral":1394,"Ġimp":1395,"Ġinflu":1396,"Ġsyllable":1397,"Angkor":1398,"sion":1399,"ually":1400,"ĠáŀļáŀĶ":1401,"ĠáŀĪ":1402,"áŀļáŀĲ":1403,"áŀĢáŀĦáŀĳ":1404,"áŀıáŀħ":1405,"ather":1406,"Ġsoc":1407,"Ġcla":1408,"ised":1409,"Ġwell":1410,"Ġft":1411,"ics":1412,"Ġdan":1413,"ĠáŁ¡":1414,"Ġrest":1415,"Ġlike":1416,"Ġnorth":1417,"Ġbeing":1418,"áŀĵáŀĶáŀĦ":1419,"land":1420,"ĠáŁ¡áŁ¨":1421,"áŁĹáŀĵ":1422,"áŁĬáŀ»":1423,"ĠáŁ¢áŁłáŁł":1424,"ĠLa":1425,"Ġserv":1426,"lished":1427,"Ġtourists":1428,"Ġtraditional":1429,"Ġofficial":1430,"ĠArch":1431,"20":1432,"Ġ4":1433,"áŀĵáŀĲ":1434,"áŀļáŀĨ":1435,"áŀŁáŀĶ":1436,"áŀıáŀĶáŀĵ":1437,"Ġapp":1438,"áŀĤáŀĢ":1439,"âĢĶ":1440,"Ġpers":1441,"Ġmin":1442,"áŀĴáŀŁ":1443,"áŀīáŀĳ":1444,"áŀīáŀĬ":1445,"ĠáŁ¤":1446,"ĠáŁĸ":1447,"Ġland":1448,"ember":1449,"Ġgener":1450,"nglish":1451,"áŁ¢áŁł":1452,"Ġalong":1453,"Ġvar":1454,"aking":1455,"ĠHun":1456,"áŀıáŀŁáŀĢáŀļ":1457,"ĠThai":1458,"áŁ¡áŁł":1459,"Ġuntil":1460,"Ġverbs":1461,"Ġpron":1462,"iefs":1463,"au":1464,"are":1465,"hip":1466,"ix":1467,"me":1468,"min":1469,"ram":1470,"à¤":1471,"áŀļáŀķ":1472,"áŀĺáŀĤ":1473,"áŀĦáŀł":1474,"áŀıáŀ¡":1475,"áŀıáŀĬáŀĽ":1476,"áŀĳáŀĳ":1477,"áŀĻáŀī":1478,"áŀľáŀĵ":1479,"áŀ¾âĢĭ":1480,"Ġfl":1481,"Ġpower":1482,"ould":1483,"Ġdue":1484,"ĠCent":1485,"ĠáŁ¦":1486,"ĠáŁ§":1487,"ĠPe":1488,"ried":1489,"áŀĵáŀĶáŀİ":1490,"áŀĭáŀĢ":1491,"ĠáŀĬáŀĽ":1492,"Ġstate":1493,"ident":1494,"áŀĺáŀļáŀĻ":1495,"Ġord":1496,"Ġall":1497,"uman":1498,"Ġart":1499,"ĠEnglish":1500,"Ġconsid":1501,"Ġcommon":1502,"Ġcommun":1503,"Ġlarge":1504,"Ġlargest":1505,"ekong":1506,"Ġnumber":1507,"bers":1508,"cy":1509,"ib":1510,"pect":1511,"up":1512,"uch":1513,"ys":1514,"Ê°":1515,"Ġed":1516,"Ġher":1517,"áŁĸ":1518,"áŀĵáŀľ":1519,"áŀĺáŀħ":1520,"áŀĳáŀĶ":1521,"áŀĳáŀĩ":1522,"áŀĸáŀı":1523,"áŀħáŀı":1524,"Ġocc":1525,"Ġobject":1526,"Ġcor":1527,"Ġwe":1528,"Ġwater":1529,"Ġbo":1530,"omm":1531,"omet":1532,"ĠáŁ¨":1533,"Ġhigh":1534,"illa":1535,"ĠKamp":1536,"Ġlit":1537,"ĠAn":1538,"Ġname":1539,"ĠPar":1540,"ided":1541,"Ġonly":1542,"ĠMa":1543,"áŁłáŁłáŁł":1544,"Ġexam":1545,"arty":1546,"ĠInternational":1547,"ĠEmpire":1548,"rance":1549,"ĠUN":1550,"áŀĤáŀļáŀľáŀı":1551,"ĠBuddhism":1552,"Ġcenturies":1553,"ounds":1554,"ĠAsia":1555,"Ġmean":1556,"Ġconstruction":1557,"Ġforest":1558,"Ġpolit":1559,"Ġchildren":1560,"Ġreligious":1561,"Ġfamily":1562,"form":1563,"way":1564,"áŀĶáŀİ":1565,"áŀŁáŀĽ":1566,"áŀĦáŀĻ":1567,"áŀıáŀļ":1568,"áŀĽáŀķ":1569,"inal":1570,"áŀĻáŀķ":1571,"Ġthese":1572,"áŀĤáŀģ":1573,"estern":1574,"Ġwrit":1575,"Ġdiv":1576,"áŀĹáŀĸáŀĽ":1577,"Ġemp":1578,"Ġno":1579,"uses":1580,"ĠMekong":1581,"other":1582,"áŀĩáŀĵáŀĢáŀĺ":1583,"ĠWor":1584,"ained":1585,"Ġworld":1586,"ife":1587,"Ġcontin":1588,"irect":1589,"Ġinclude":1590,"ording":1591,"Ġregion":1592,"ĠIndian":1593,"Ġprodu":1594,"Ġphras":1595,"Ġstructure":1596,"Ġdecor":1597,"Ġincreas":1598,"Ġposs":1599,"Ġdiffer":1600,"Ġprotect":1601,"Ġappro":1602,"Phnom":1603,"ex":1604,"ech":1605,"ll":1606,"ne":1607,"pen":1608,"ric":1609,"rast":1610,"the":1611,"Ġ5":1612,"Ġer":1613,"áŀį":1614,"áŀļáŀļáŀĶáŀŁ":1615,"áŀĢáŀł":1616,"áŀıáŀĽ":1617,"áŀıáŀ¢":1618,"Ġam":1619,"áŀĳáŀĽ":1620,"áŀĻáŀĨ":1621,"ond":1622,"áŀľáŀľáŀŁ":1623,"âĢĭâĢĭ":1624,"atures":1625,"ish":1626,"ank":1627,"ars":1628,"Ġmo":1629,"Ġmade":1630,"áŀīáŀĺ":1631,"áŀīáŀĩ":1632,"ĠáŁ¥":1633,"Ġhouse":1634,"ilt":1635,"Ġla":1636,"Ġnational":1637,"Ġthose":1638,"Ġbegan":1639,"Ġass":1640,"Ġ11":1641,"Ġsty":1642,"apan":1643,"ĠáŁ¡áŁ¥":1644,"áŀĻáŀĢáŀļáŀĬ":1645,"ively":1646,"Ġdep":1647,"Ġrice":1648,"áŁ¡áŁ¡áŁ":1649,"Ġarm":1650,"Ġsymb":1651,"ĠUn":1652,"Ġverb":1653,"áŀ¯áŀĢáŀŁ":1654,"Ġpopular":1655,"aily":1656,"ĠJapan":1657,"Ġindic":1658,"Ġtourism":1659,"Ġparticles":1660,"Ġbecome":1661,"ology":1662,"cient":1663,"Ġestab":1664,"Ġconsonant":1665,"ĠTonle":1666,"Ġvisit":1667,"Ġpronoun":1668,"Ġexample":1669,"Ġsymbol":1670,"ared":1671,"ause":1672,"ever":1673,"wor":1674,"Ġ7":1675,"ĠÂ°":1676,"áŀĶáŀģ":1677,"áŀĺáŀİ":1678,"áŀıáŀĲ":1679,"Ġtime":1680,"Ġap":1681,"áŀĽáŀģ":1682,"áŀĽáŀĢáŀĺ":1683,"erv":1684,"áŀħáŀĬ":1685,"áŀľáŀĲ":1686,"áŀľáŀĮ":1687,"áŁĤáŁĴ":1688,"att":1689,"Ġso":1690,"Ġset":1691,"Ġsim":1692,"Ġsign":1693,"orts":1694,"orical":1695,"áŀ¢áŀĢ":1696,"Ġpub":1697,"Ġmus":1698,"Ġdem":1699,"Ġhow":1700,"Ġref":1701,"Ġled":1702,"Ġeff":1703,"Ġecon":1704,"Ġeach":1705,"Ġ('":1706,"Ġbel":1707,"Ġ14":1708,"áŀĭáŀŁáŀĹ":1709,"áŁıâĢĭ":1710,"Ġvilla":1711,"Ġproject":1712,"ĠFor":1713,"ĠCambodians":1714,"áŁ¥áŁł":1715,"Ġsever":1716,"Ġlead":1717,"ĠSiam":1718,"áŀļáŀħáŀĵ":1719,"Ġshow":1720,"oken":1721,"áŀļáŀĹáŀĸ":1722,"Ġspoken":1723,"áŀŁáŀıáŀľáŀı":1724,"ÉĻj":1725,"ĠAsian":1726,"áŀŁáŀħáŀļáŀİ":1727,"Ġtowers":1728,"Ġfollowing":1729,"áŁ¡áŁ©áŁ§":1730,"Ġbuilt":1731,"Ġarchitecture":1732,"Ġsocial":1733,"Ġeconom":1734,"78":1735,"end":1736,"li":1737,"ner":1738,"pre":1739,"Ġ6":1740,"Ġáŀ¬":1741,"áŀĵáŀł":1742,"áŀĺáŀĴ":1743,"áŀŁáŀł":1744,"áŀıáŀļáŀĶáŀŁ":1745,"Ġau":1746,"áŀĽáŀħ":1747,"inces":1748,"áŀĻáŀļáŀĬ":1749,"Ġopp":1750,"Ġsent":1751,"Ġsch":1752,"Ġsout":1753,"Ġsouth":1754,"itut":1755,"ality":1756,"ange":1757,"Ġwom":1758,"Ġfour":1759,"ices":1760,"áŀīáŀĶ":1761,"áŀīáŀħ":1762,"Ġgar":1763,"Ġgra":1764,"Ġ16":1765,"ries":1766,"áŀºâĢĭ":1767,"Ġareas":1768,"Ġstat":1769,"áŀļáŀĢáŀĥ":1770,"ĠRo":1771,"ĠRiver":1772,"ĠáŁ¡áŁ¢":1773,"ival":1774,"ivil":1775,"oci":1776,"ĠáŁ¢áŁł":1777,"áŀĦáŀ¢áŀŁ":1778,"áŀļáŀİáŀļáŀĬ":1779,"áŀĵáŀĳáŀĳ":1780,"ĠáŁ¡áŁ©áŁ©áŁ":1781,"Ġspir":1782,"áŀ§áŀı":1783,"ressed":1784,"Ġprovince":1785,"crib":1786,"ological":1787,"Ġforeign":1788,"Ġbuild":1789,"arman":1790,"ribut":1791,"Ġsupport":1792,"Ġcomplex":1793,"Ġorder":1794,"Ġcontinu":1795,"..":1796,"19":1797,"80":1798,"ae":1799,"air":1800,"de":1801,"day":1802,"epend":1803,"ful":1804,"iqu":1805,"line":1806,"nic":1807,"ool":1808,"ung":1809,"west":1810,"Ã¢":1811,"Éĳ":1812,"ĠY":1813,"ĠâĢ":1814,"Ġáŀĥ":1815,"áŀļáŀŁáŀĺ":1816,"Ġact":1817,"hea":1818,"áŀĽáŀĹ":1819,"ins":1820,"áŀĳáŀ¢áŀĦ":1821,"áŀĻáŀı":1822,"áŀĻáŀĻ":1823,"áŀĻáŀł":1824,"áŀħáŀŁ":1825,"Ġsit":1826,"Ġinternational":1827,"Ġwar":1828,"Ġwest":1829,"áŁĩâĢĭ":1830,"Ġback":1831,"Ġpract":1832,"aries":1833,"omp":1834,"ason":1835,"Ġdirect":1836,"áŀĴáŀķ":1837,"lect":1838,"Ġlong":1839,"Ġeth":1840,"Ġ(\"":1841,"ury":1842,"vers":1843,"Ġgrow":1844,"though":1845,"Ġ12":1846,"Ġ17":1847,"Ġwithin":1848,"ĠMount":1849,"osed":1850,"Ġprocess":1851,"Ġancient":1852,"ĠFrance":1853,"illed":1854,"ctions":1855,"overed":1856,"Ġabove":1857,"ordin":1858,"Ġdisc":1859,"Ġdisp":1860,"Ġreport":1861,"ucation":1862,"Ġinvest":1863,"Ġ1970":1864,"Ġculture":1865,"Ġsurround":1866,"Ġlocal":1867,"Ġgroups":1868,"ĠArchived":1869,"Ġmusic":1870,"cing":1871,"ep":1872,"iÉĻ":1873,"ling":1874,"nect":1875,"ron":1876,"ring":1877,"to":1878,"uk":1879,"ven":1880,"ximate":1881,"yth":1882,"Åĭ":1883,"Ġ'":1884,"Ġes":1885,"áŀĵáŀĢáŀĺ":1886,"áŀļáŀĪ":1887,"áŀĢáŀĹ":1888,"áŀĢáŀħáŀĺ":1889,"áŀĶáŀĲ":1890,"áŀĺáŀľ":1891,"áŀĺáŀ¢":1892,"áŀĺáŀĹ":1893,"áŀıáŀľáŀı":1894,"áŀĽáŀĴ":1895,"áŀĳáŀĵáŀļ":1896,"áŀĻáŀ¡":1897,"rel":1898,"Ġold":1899,"áŀĤáŀĺáŀĵ":1900,"áŀľáŀĹ":1901,"atives":1902,"Ġsing":1903,"oration":1904,"ither":1905,"ana":1906,"Ġwhere":1907,"Ġpass":1908,"ick":1909,"áŀ¶áŁĨâĢĭ":1910,"Ġder":1911,"lear":1912,"ility":1913,"áŀĵáŀĢáŀĬ":1914,"ĠThese":1915,"raph":1916,"áŀĵáŀĶáŀī":1917,"Ġconc":1918,"ĠII":1919,"ĠáŁ¡áŁ¤":1920,"áŁįáŁĶ":1921,"Ġdeath":1922,"Ġsub":1923,"rupt":1924,"ĠáŁ¡áŁ©áŁ¥":1925,"Ġ2010":1926,"avarman":1927,"Ġaddition":1928,"Ġseries":1929,"Ġindust":1930,"Ġindepend":1931,"Ġmonu":1932,"Ġspec":1933,"Ġrigh":1934,"Ġdescrib":1935,"Ġdistin":1936,"Ġgallery":1937,"Ġhistorical":1938,"Ġtypical":1939,"Ġdances":1940,"Ġperson":1941,"ĠPeople":1942,"Ġliter":1943,"Ġpolitical":1944,"ĠWorld":1945,"Ġapproximate":1946,"Ġera":1947,"Ġseveral":1948,"Ġapproximately":1949,"')":1950,"15":1951,"BN":1952,"aren":1953,"ban":1954,"ec":1955,"get":1956,"pr":1957,"rong":1958,"side":1959,"ving":1960,"ways":1961,"yed":1962,"©áŁł":1963,"É¨":1964,"ÉĶ":1965,"ĠáŀĶáŀĵ":1966,"Ġáŀ§":1967,"áŀĵáŀĶáŀĵ":1968,"áŀĵáŀļáŀĶáŀŁ":1969,"áŀĵáŀĪ":1970,"áŀĢáŀľ":1971,"áŀŁáŀŁ":1972,"áŀıáŀĤ":1973,"Ġtro":1974,"inist":1975,"áŀĳáŀļ":1976,"áŀĳáŀĺ":1977,"áŀĳáŀħáŀĵ":1978,"áŀĸáŀĬ":1979,"áŀĩáŀĺ":1980,"áŀĩáŀĬ":1981,"Ġthen":1982,"áŀħáŀĤ":1983,"Ġcas":1984,"Ġcivil":1985,"enced":1986,"ising":1987,"itage":1988,"Ġpres":1989,"Ġprim":1990,"Ġdam":1991,"Ġdomin":1992,"ently":1993,"ĠTour":1994,"Ġred":1995,"Ġnam":1996,"ros":1997,"ĠParty":1998,"áŁģáŁĩâĢĭ":1999,"Ġ15":2000,"cept":2001,"Ġstill":2002,"Ġwhat":2003,"áŀĩáŀĵáŀģ":2004,"ands":2005,"áŁ¡áŁ¤":2006,"ĠVis":2007,"Ġseason":2008,"pper":2009,"Ġchar":2010,"ights":2011,"Ġcontro":2012,"Ġimport":2013,"Ġprovinces":2014,"Ġplace":2015,"Ġspeech":2016,"useum":2017,"áŁ¡áŁ©áŁ©áŁ":2018,"Ġelection":2019,"Ġclassical":2020,"cially":2021,"Ġgalleries":2022,"Ġinscript":2023,"Ġconsidered":2024,"ometimes":2025,"Ġstyle":2026,"Ġestablished":2027,"Ġappe":2028,"Ġethnic":2029,"\")":2030,"10":2031,"Si":2032,"SBN":2033,"ah":2034,"ft":2035,"ges":2036,"ms":2037,"rated":2038,"und":2039,"uter":2040,"uary":2041,"xt":2042,"á¹":2043,"ĠáŀĺáŀĢ":2044,"áŀĢáŀĲ":2045,"áŀĦáŀļáŀĶáŀŁ":2046,"Ġten":2047,"ines":2048,"áŀĸáŀĩ":2049,"reated":2050,"áŀĤáŀĶ":2051,"áŀľáŀļ":2052,"áŀľáŀĬ":2053,"áŀľáŀĤ":2054,"atic":2055,"Ġscript":2056,"Ġsometimes":2057,"Ġcou":2058,"Ġcour":2059,"edia":2060,"orod":2061,"áŀ¢áŀĶ":2062,"Ġfive":2063,"Ġpar":2064,"Ġpur":2065,"Ġpred":2066,"ash":2067,"Ġdry":2068,"ĠCo":2069,"ĠCult":2070,"Ġrefer":2071,"Ġequ":2072,"Ġeither":2073,"ĠAng":2074,"áŁīáŀ¼":2075,"ĠPre":2076,"Ġ10":2077,"Ġ13":2078,"rav":2079,"used":2080,"áŀļáŀĳáŀĽ":2081,"Ġconnect":2082,"ĠISBN":2083,"ĠáŀŁáŀł":2084,"ĠMon":2085,"Ġdev":2086,"Ġsug":2087,"angk":2088,"Ġru":2089,"pecially":2090,"áŀĦáŀ¢áŀī":2091,"Ġáŀĳáŀĵ":2092,"ĠCham":2093,"Ġleg":2094,"Ġlevel":2095,"Ġnear":2096,"Ġneigh":2097,"ĠáŁ¡áŁ©áŁ¦":2098,"Ġ2018":2099,"Ġhel":2100,"Ġhead":2101,"ĠOld":2102,"Ġperform":2103,"ards":2104,"áŀ§áŀŁ":2105,"Ġyou":2106,"Ġtourist":2107,"Ġspeak":2108,"Ġ2023":2109,"áŀļáŀ¢áŀĹ":2110,"Ġ978":2111,"Ġinvol":2112,"ivers":2113,"Ġdevelopment":2114,"Ġthroughout":2115,"Ġagain":2116,"ĠProv":2117,"Ġamong":2118,"ĠJapanese":2119,"Ġvisitors":2120,"ĠâĢľ":2121,"ross":2122,"Ġneighb":2123,"200":2124,"io":2125,"language":2126,"oot":2127,"par":2128,"pir":2129,"tle":2130,"ying":2131,"ĠáŀĴ":2132,"Ġáŀĩáŀĵáŀĩ":2133,"Ġident":2134,"áŀĵáŀĻ":2135,"áŀļáŀ¢áŀĵ":2136,"áŀĢáŀİ":2137,"áŀĢáŀ¡":2138,"áŀŁáŀľáŀı":2139,"áŀŁáŀļáŀŁ":2140,"áŀıáŀĢáŀĺ":2141,"Ġtak":2142,"Ġage":2143,"áŀĽáŀĽ":2144,"áŀĽáŀł":2145,"áŀĽáŀļáŀĶáŀŁ":2146,"áŀĸáŀģ":2147,"áŀĻáŀŁáŀĺ":2148,"áŀĻáŀĺáŀĢ":2149,"áŁĭ-":2150,"áŀĬáŀİ":2151,"áŁģâĢĭ":2152,"áŁģáŁĶ":2153,"reet":2154,"read":2155,"áŀħáŀļ":2156,"áŀħáŀģ":2157,"áŀħáŀĴ":2158,"Ġob":2159,"Ġoper":2160,"ature":2161,"Ġsm":2162,"Ġsq":2163,"Ġsand":2164,"Ġsame":2165,"Ġce":2166,"Ġcer":2167,"Ġcur":2168,"Ġcra":2169,"ene":2170,"ission":2171,"ories":2172,"áŀ¢áŀĴ":2173,"ann":2174,"Ġwould":2175,"Ġfun":2176,"Ġbus":2177,"Ġpoin":2178,"Ġparen":2179,"Ġman":2180,"Ġmid":2181,"Ġmuch":2182,"icip":2183,"Ġdest":2184,"áŀłáŀĢáŀĺ":2185,"Ġhig":2186,"ĠTra":2187,"áŀķáŀĦáŀĬ":2188,"Ġlangu":2189,"Ġlake":2190,"ĠSis":2191,"ĠPal":2192,"Ġthough":2193,"Ġbegin":2194,"thor":2195,"rah":2196,"Ġconf":2197,"Ġste":2198,"Ġstone":2199,"áŀĦáŀĶáŀļ":2200,"ides":2201,"unicip":2202,"áŁĪ,":2203,"ĠBatt":2204,"iving":2205,"osp":2206,"osition":2207,"Ġproper":2208,"Ġdef":2209,"Ġanother":2210,"Ġrural":2211,"Ġworn":2212,"áŁ¡áŁ¢":2213,"áŁ¡áŁ£":2214,"áŁ¡áŁ¥":2215,"áŁ¡áŁ¨":2216,"ably":2217,"ĠThom":2218,"ĠNorth":2219,"ĠNorod":2220,"Ġusing":2221,"ĠChak":2222,"Ġáŀ¢áŀı":2223,"Ġclimate":2224,"Ġ2011":2225,"Ġconsist":2226,"áŀ¥áŀĳ":2227,"Ġinfrast":2228,"Cambodian":2229,"Ġparticular":2230,"Ġbecame":2231,"Ġbased":2232,"Ġrecord":2233,"Ġcompounds":2234,"Ġdesign":2235,"ĠKingdom":2236,"ize":2237,"Ġfeatures":2238,"Ġestim":2239,"áŀĵáŀĢáŀŁáŀī":2240,"Ġreligion":2241,"Ġkingdom":2242,"Ġmarked":2243,"Ġmajority":2244,"Ġwalls":2245,"Ġdialects":2246,"Ġminor":2247,"ĠCentral":2248,"Ġmeaning":2249,"Ġwritten":2250,"Ġassoci":2251,"Ġdepict":2252,"Ġespecially":2253,"Ġhelp":2254,"ĠProvince":2255,"ĠNorodom":2256,"Ġinfrastruct":2257,".)":2258,"/.":2259,"ES":2260,"ax":2261,"ave":2262,"ball":2263,"ck":2264,"ched":2265,"eg":2266,"hab":2267,"led":2268,"lÃ©":2269,"rodu":2270,"tal":2271,"ug":2272,"uis":2273,"umer":2274,"ĠZ":2275,"ĠáŀļáŀĶáŀŁ":2276,"áŁ©áŁ":2277,"áŀĵáŀļáŀĢáŀĥ":2278,"áŀĢáŀī":2279,"áŀĶáŀľ":2280,"áŀŁáŀĤ":2281,"áŀŁáŀĲ":2282,"áŀĦáŀļáŀĶ":2283,"áŀıáŀł":2284,"Ġaut":2285,"áŀĽáŀĦáŀĢ":2286,"áŀĩáŀĵáŀĶ":2287,"áŀĻáŀļáŀĶáŀŁ":2288,"áŁĭ)":2289,"eration":2290,"onial":2291,"Ġopen":2292,"áŀĤáŀħáŀĺ":2293,"áŀľáŀħ":2294,"Ġsk":2295,"eng":2296,"alf":2297,"anct":2298,"Ġwill":2299,"Ġwear":2300,"Ġfact":2301,"Ġbord":2302,"Ġpat":2303,"áŀİáŀĹ":2304,"ark":2305,"Ġmet":2306,"Ġmyth":2307,"ional":2308,"aster":2309,"astern":2310,"Ġdra":2311,"Ġdaily":2312,"Ġtop":2313,"leg":2314,"áŀīáŀı":2315,"áŀīáŀķ":2316,"ĠComm":2317,"Ġhuman":2318,"Ġrese":2319,"ilar":2320,"ambang":2321,"Ġlate":2322,"Ġeast":2323,"stone":2324,"Ġnow":2325,"very":2326,"ement":2327,"Ġground":2328,"áŀĵáŀĢáŀĶ":2329,"áŀĵáŀĢáŀĳ":2330,"áŀĭáŀĴáŀĺ":2331,"Ġforces":2332,"ĠRights":2333,"aper":2334,"idence":2335,"áŀĦáŀŁáŀıáŀľáŀı":2336,"ĠáŁ¡áŁ¦":2337,"ird":2338,"Ġalthough":2339,"ĠWh":2340,"ĠWar":2341,"Ġvo":2342,"Ġanal":2343,"Ġke":2344,"Ġsubject":2345,"ongs":2346,"ored":2347,"elf":2348,"andard":2349,"Ġrather":2350,"ured":2351,"hnu":2352,"orthern":2353,"ĠHuman":2354,"ĠNew":2355,"Ġusually":2356,"clos":2357,"Ġsepar":2358,"Ġneg":2359,"Ġ2012":2360,"ĠOther":2361,"ĠáŁłáŁłáŁł":2362,"atively":2363,"ĠAss":2364,"Ġresult":2365,"othing":2366,"Ġfollowed":2367,"uchea":2368,"acter":2369,"Ġriver":2370,"Ġconstruct":2371,"Ġphon":2372,"Ġelements":2373,"ĠChina":2374,"ized":2375,"Ġ1975":2376,"Ġcultural":2377,"ensus":2378,"Ġnumbers":2379,"Ġdeveloped":2380,"Ġtransl":2381,"Ġplan":2382,"ĠDevelop":2383,"Ġearly":2384,"ĠHinduism":2385,"Ġnouns":2386,"Ġvowels":2387,"Ġimpro":2388,"Ġinfluence":2389,"ĠLaos":2390,"Ġgenerally":2391,"Ġemplo":2392,"Ġphrases":2393,"Ġarmy":2394,"Ġpronounced":2395,"Ġeconomic":2396,"Ġsouthern":2397,"Ġwoman":2398,"Ġspirits":2399,"ordinate":2400,"Ġindustry":2401,"Ġmonument":2402,"Ġdescribed":2403,"inistry":2404,"ĠTourism":2405,"ĠVishnu":2406,"Ġcharacter":2407,"Siem":2408,"Ġyoung":2409,"Ġsandstone":2410,"Ġlanguages":2411,"ĠBattambang":2412,"Ġinfrastructure":2413,"07":2414,"40":2415,"63":2416,"90":2417,"AN":2418,"CO":2419,"SE":2420,"],":2421,"cent":2422,"ka":2423,"krit":2424,"sive":2425,"ves":2426,"ylla":2427,"Äģ":2428,"ÊĶ":2429,"ãĢ":2430,"Ġif":2431,"ĠâĢĵ":2432,"áŀ¦":2433,"áŀĢáŀĴ":2434,"áŀĢáŀŁáŀĺ":2435,"áŀĢáŀ±":2436,"áŀĶáŀĩ":2437,"áŀĶáŀ¢áŀĦ":2438,"áŀĺáŀļáŀĬ":2439,"áŀĺáŀ¡":2440,"áŀŁáŀĨ":2441,"áŀĦáŀĶáŀĵ":2442,"Ġav":2443,"Ġaff":2444,"áŀĽáŀľ":2445,"áŀĽáŀŁáŀĺ":2446,"ink":2447,"áŀĸáŀĢ":2448,"áŀĸáŀļáŀĶáŀŁ":2449,"áŀĬáŀĶ":2450,"áŀĬáŀĳ":2451,"Ġthem":2452,"rew":2453,"reed":2454,"Ġouter":2455,"âĢĿ":2456,"ats":2457,"Ġsa":2458,"Ġside":2459,"Ġcir":2460,"Ġclear":2461,"isation":2462,"itial":2463,"itual":2464,"Ġwood":2465,"Ġfur":2466,"Ġfish":2467,"áŀ½âĢĭ":2468,"Ġmot":2469,"Ġmount":2470,"Ġmult":2471,"Ġmove":2472,"Ġmember":2473,"iced":2474,"Ġdet":2475,"Ġdays":2476,"áŀĴáŀĹ":2477,"Ġtotal":2478,"áŀīáŀĲ":2479,"ods":2480,"ody":2481,"Ġhill":2482,"ĠTem":2483,"Ġlow":2484,"Ġlast":2485,"odif":2486,"ĠAfter":2487,"ĠSe":2488,"ĠSome":2489,"ĠSans":2490,"áŁīáŁĦ":2491,"áŁīáŁĩ":2492,"ĠPh":2493,"Ġthreat":2494,"ura":2495,"urn":2496,"chin":2497,"áŁĦáŁĩáŁĶ":2498,"Ġgu":2499,"Ġgreat":2500,"Ġformer":2501,"Ġstud":2502,"Ġstress":2503,"ims":2504,"ters":2505,"áŀĦáŀĢáŀĦáŀĳ":2506,"ĠáŀŁáŀĦ":2507,"ops":2508,"ected":2509,"ĠáŁ¡áŁ£":2510,"ĠBy":2511,"Ġorgan":2512,"ĠWhen":2513,"Ġdecl":2514,"áŀĽáŀĶáŀĦ":2515,"Ġkil":2516,"áŁĬáŁĤ":2517,"áŀļáŀłáŀĺáŀĶ":2518,"Ġrul":2519,"Ġrun":2520,"Ġ195":2521,"Ġ1960":2522,"ability":2523,"Ġexist":2524,"pped":2525,"ĠChan":2526,"Ġleast":2527,"Ġintrodu":2528,"áŁ¤áŁł":2529,"Ġheav":2530,"áŁ¦áŁł":2531,"Ġshr":2532,"arded":2533,"aving":2534,"ccording":2535,"Ġrepla":2536,"Ġserve":2537,"Ġrespect":2538,"áŀĶáŀŁáŀļáŀŁ":2539,"ĠIndia":2540,"Ġplain":2541,"Ġevidence":2542,"Ġnews":2543,"Ġparticle":2544,"áŀļáŀ¢áŀĶ":2545,"Ġremain":2546,"acked":2547,"Ġaccording":2548,"Ġsurv":2549,"Ġconsonants":2550,"Ġaccess":2551,"Ġgroup":2552,"áŀĩáŀĶáŀĽ":2553,"Ġvarious":2554,"Ġflood":2555,"Ġeducation":2556,"ĠUNES":2557,"Ġproduct":2558,"Ġpossible":2559,"Ġdifferent":2560,"work":2561,"Ġsimilar":2562,"Ġpublic":2563,"Ġeffect":2564,"Ġprojects":2565,"Ġschool":2566,"ique":2567,"Ġreported":2568,"reliefs":2569,"Ġdistinct":2570,"Ġsuggest":2571,"Ġparents":2572,"Ġestimated":2573,"Ġpattern":2574,"ĠDevelopment":2575,"ĠSanskrit":2576,"ĠUNESCO":2577,"22":2578,"62":2579,"bal":2580,"bly":2581,"bles":2582,"bably":2583,"iri":2584,"ium":2585,"mat":2586,"man":2587,"mber":2588,"ov":2589,"por":2590,"paper":2591,"ues":2592,"ward":2593,"áŀļáŀ±":2594,"áŀĶáŀĴ":2595,"áŀĺáŀĽ":2596,"áŀĺáŀĢáŀĺ":2597,"áŀĺáŀŁáŀĺ":2598,"áŀĦáŀ¢áŀĦ":2599,"áŀĦáŀĪ":2600,"Ġtrib":2601,"áŀĽáŀ¢":2602,"áŀĽáŀĲ":2603,"ined":2604,"ination":2605,"áŀĳáŀĦ":2606,"áŀĻáŀĴ":2607,"áŀ·áŁį":2608,"áŁĨâĢĭ":2609,"Ġtheat":2610,"onst":2611,"áŁģáŁĴ":2612,"reng":2613,"Ġsac":2614,"Ġcos":2615,"Ġcuis":2616,"Ġcensus":2617,"alth":2618,"Ġwide":2619,"Ġfri":2620,"Ġfood":2621,"Ġpresent":2622,"áŀİáŀĦ":2623,"Ġmaking":2624,"Ġdro":2625,"Ġdown":2626,"áŀĴáŀĩ":2627,"áŀĴáŀŁáŀĹ":2628,"ential":2629,"Ġhome":2630,"Ġhalf":2631,"ili":2632,"ilk":2633,"ille":2634,"Ġlo":2635,"Ġlab":2636,"Ġempire":2637,"ĠAy":2638,"ĠAir":2639,"ĠAust":2640,"ĠApr":2641,"Ġnative":2642,"Ġnumer":2643,"ĠPl":2644,"ĠPr":2645,"emic":2646,"embers":2647,"olid":2648,"áŀĵáŀĢáŀĵ":2649,"ĠThey":2650,"ĠTherav":2651,"ister":2652,"istic":2653,"Ġstory":2654,"Ġ21":2655,"Ġ22":2656,"ĠRes":2657,"áŀĦáŀĳáŀĳ":2658,"ests":2659,"ĠáŁ¡áŁ©áŁł":2660,"ada":2661,"aya":2662,"ayana":2663,"iven":2664,"áŁ¢áŁ¥":2665,"resh":2666,"Ġalways":2667,"ately":2668,"Ġprog":2669,"Ġprobably":2670,"Ġann":2671,"Ġsuc":2672,"ĠFrom":2673,"áŁĬáŀ¼":2674,"els":2675,"elt":2676,"Ġ1980":2677,"áŀĪáŀĺáŀİ":2678,"áŀĵáŀĬáŀĽ":2679,"Ġcomb":2680,"áŁ¡áŁ¡":2681,"ically":2682,"Ġexten":2683,"ified":2684,"áŀĻáŀŁáŀĦ":2685,"Ġhaving":2686,"ĠHer":2687,"ĠáŁ¢áŁ¥":2688,"áŀĦáŀ¢áŀĵ":2689,"ĠNove":2690,"Ġlear":2691,"Ġáŀĩáŀĺ":2692,"áŀıáŀĺáŀŁ":2693,"áŁ£áŁ¥":2694,"ĠáŁ¡áŁ©áŁ¨":2695,"Ġclust":2696,"Ġclose":2697,"Ġunique":2698,"áŀĢáŀļáŀĽ":2699,"Ġcontribut":2700,"Ġrelated":2701,"Ġrelations":2702,"ĠOn":2703,"ĠOct":2704,"áŀļáŀĹáŀĸáŀĵ":2705,"Ġvery":2706,"Ġversion":2707,"áŀ¯áŀĢáŀļ":2708,"Ġrole":2709,"Ġresp":2710,"ĠIndo":2711,"Ġenclos":2712,"Ġtower":2713,"Ġevent":2714,"Ġ2020":2715,"tend":2716,"Ġpreced":2717,"Ġ30":2718,"Ġbecause":2719,"áŀĢáŀĩáŀī":2720,"Ġremains":2721,"Ġjoin":2722,"áŀĦáŁĹáŀĳ":2723,"ization":2724,"Ġquar":2725,"ĠáŁ¡áŁ©áŁ§áŁł":2726,"Ġterrit":2727,"Ġsupply":2728,"Ġroyalty":2729,"Ġmarket":2730,"ĠTonlÃ©":2731,"áŀļáŀ¡áŀĶ":2732,"Ġhistory":2733,"Ġinfluenced":2734,"Ġclause":2735,"ĠáŁ¡áŁł":2736,"Ġgeneral":2737,"augh":2738,"Ġoccur":2739,"Ġoccup":2740,"ĠKampuchea":2741,"ĠParis":2742,"Ġphrase":2743,"Ġdecorated":2744,"ervation":2745,"Ġvillages":2746,"Ġauthor":2747,"ĠRoyal":2748,"Ġbuildings":2749,"Ġsites":2750,"Ġsurrounding":2751,"Ġsingle":2752,"ruption":2753,"Ġsmall":2754,"Ġborder":2755,"Ġresearch":2756,"SEAN":2757,"áŀ¦áŀŁ":2758,"Ġcirc":2759,"Ġnewspaper":2760,"Ġcosm":2761,"ĠApril":2762,"Ġextensive":2763,"ĠNovember":2764,"11":2765,"84":2766,"98":2767,"AC":2768,"Th":2769,"].":2770,"bai":2771,"co":2772,"ded":2773,"ead":2774,"for":2775,"has":2776,"iers":2777,"med":2778,"nt":2779,"oe":2780,"oj":2781,"ober":2782,"rict":2783,"tc":2784,"ting":2785,"tic":2786,"wn":2787,"Ã´":2788,"Ġ,":2789,"Ġáŀ":2790,"Ġur":2791,"Ġáŀ¯":2792,"áŀ«":2793,"áŀĵáŀĻáŀĢ":2794,"áŀļáŀĺáŀĢ":2795,"áŀĢáŀ§áŀı":2796,"áŀĶáŀĽ":2797,"áŀĶáŀĢáŀĺ":2798,"áŀŁáŀľ":2799,"áŀĦáŀĺáŀĵ":2800,"Ġtake":2801,"Ġtimes":2802,"Ġaid":2803,"Ġair":2804,"hest":2805,"áŀĸáŀĳ":2806,"áŀĸáŀ¢":2807,"áŀĻáŀĦ":2808,"áŀĻáŀĶáŀĵ":2809,"áŀĻáŀĴáŀĺ":2810,"áŀĻáŀĺáŀĢáŀĸ":2811,"áŀ·âĢĭ":2812,"áŀ·áŁĶ":2813,"áŀĬáŀĦ":2814,"áŀĬáŀĬ":2815,"erve":2816,"ony":2817,"oned":2818,"rest":2819,"reater":2820,"áŀħáŀĸ":2821,"áŀħáŁĹ":2822,"áŀĤáŀĳ":2823,"áŀĤáŀļáŀĵ":2824,"Ġsou":2825,"Ġsect":2826,"Ġsix":2827,"Ġca":2828,"Ġcover":2829,"Ġcrim":2830,"Ġcreated":2831,"edic":2832,"ened":2833,"ished":2834,"orate":2835,"orrow":2836,"áŀ¢áŀĹ":2837,"Ġinner":2838,"Ġwestern":2839,"Ġfem":2840,"Ġfla":2841,"Ġfac":2842,"Ġflo":2843,"Ġfinal":2844,"Ġfilled":2845,"Ġbl":2846,"Ġbody":2847,"Ġpo":2848,"Ġpri":2849,"Ġport":2850,"Ġpost":2851,"áŀİáŀĶáŀĢ":2852,"ara":2853,"Ġmor":2854,"Ġmass":2855,"Ġmale":2856,"Ġmuseum":2857,"Ġmission":2858,"Ġmunicip":2859,"Ġmodif":2860,"amk":2861,"áŀ¶áŁĨáŁĶ":2862,"ased":2863,"áŀłáŀĶ":2864,"áŀłáŀĺ":2865,"áŀłáŀĹ":2866,"Ġtook":2867,"leb":2868,"áŀīáŀŁ":2869,"ĠCity":2870,"áŀļáŀĶáŀĬáŀİ":2871,"áŁĥáŁĶ":2872,"Ġret":2873,"Ġrece":2874,"ilit":2875,"Ġlife":2876,"Ġep":2877,"ĠAd":2878,"ĠASEAN":2879,"ĠSom":2880,"ĠSouth":2881,"ĠSury":2882,"Ġnon":2883,"Ġnat":2884,"Ġthous":2885,"Ġbelow":2886,"olar":2887,"Ġaspir":2888,"Ġgram":2889,"Ġgiven":2890,"race":2891,"istics":2892,"áŀļáŀĩáŀĺ":2893,"Ġstrong":2894,"áŀļáŀĢáŀĶáŀĬ":2895,"ĠRam":2896,"áŀĦáŀĢáŀĢ":2897,"áŀĺáŀĢáŀľ":2898,"idd":2899,"ĠMe":2900,"ĠMay":2901,"unched":2902,"oph":2903,"áŁĪáŁĶ":2904,"estions":2905,"ĠBangk":2906,"Ġ2000":2907,"áŀĩáŀĵáŀļáŀŁ":2908,"mented":2909,"Ġalleg":2910,"Ġany":2911,"Ġanim":2912,"áŀĽáŀĶáŀļ":2913,"ources":2914,"Ġrise":2915,"ock":2916,"ĠáŁ¢áŁ¦":2917,"áŀĮáŀĽ":2918,"ached":2919,"Ġáŀĳáŀĳ":2920,"Ġarri":2921,"iety":2922,"less":2923,"ĠDaily":2924,"ĠRep":2925,"Ġ2013":2926,"Ġ2019":2927,"lowing":2928,"Ġheld":2929,"ĠLe":2930,"Ġaband":2931,"Ġcontain":2932,"áŀĦáŀļáŀĻ":2933,"Ġincludes":2934,"ords":2935,"Ġtravel":2936,"Ġcountries":2937,"iew":2938,"Ġadver":2939,"Ġregular":2940,"Ġregime":2941,"ogn":2942,"Ġroad":2943,"áŀļáŀĤáŀĽ":2944,"Ġmonso":2945,"Ġenc":2946,"Ġcapt":2947,"áŁ©áŁł":2948,"Ġtown":2949,"Ġ2025":2950,"ublic":2951,"áŀĳáŀŁáŀľáŀı":2952,"Ġprev":2953,"Ġremained":2954,"Ġ95":2955,"Ġjust":2956,"Ġ1993":2957,"lobal":2958,"Ġfeet":2959,"Ġentire":2960,"Ġinterpre":2961,"ighting":2962,"ification":2963,"Ġearli":2964,"Ġoriginally":2965,"Ġclauses":2966,"Ġrestoration":2967,"Ġservices":2968,"Ġconsider":2969,"Ġboat":2970,"ĠáŁ¨áŁł":2971,"ĠMaha":2972,"Ġdivided":2973,"Ġemphas":2974,"Ġincreased":2975,"Ġpossess":2976,"áŀįáŀĵ":2977,"Ġmoat":2978,"Ġlaw":2979,"Ġlaunched":2980,"ĠUnited":2981,"Ġpublished":2982,"Ġhowever":2983,"Ġbelie":2984,"ĠSiamese":2985,"Ġopposition":2986,"Ġsentences":2987,"Ġstatus":2988,"aeological":2989,"Ġactiv":2990,"ĠMountains":2991,"Ġdispla":2992,"Ġinvestment":2993,"Ġconcern":2994,"Ġspecies":2995,"Ġright":2996,"Ġtropical":2997,"Ġdamage":2998,"Ġimportant":2999,"Ġinscriptions":3000,"Ġpurp":3001,"ĠPreah":3002,"Ġdevat":3003,"Ġrule":3004,"Ġagainst":3005,"ootball":3006,"Ġceleb":3007,"osphere":3008,"áŀĩáŀĵáŀĶáŀĳ":3009,"anctuary":3010,"Ġanalys":3011,"Ġconstructed":3012,"Ġfurther":3013,"matical":3014,"Ġcuisine":3015,"Ġlabour":3016,"Ġnumerals":3017,"ĠHeritage":3018,"ĠOctober":3019,"ĠSuryavarman":3020,"ĠBangkok":3021,"\").":3022,"05":3023,"24":3024,"95":3025,"St":3026,"az":3027,"aËĲ":3028,"bic":3029,"back":3030,"bek":3031,"cember":3032,"hu":3033,"ier":3034,"kraph":3035,"lass":3036,"most":3037,"of":3038,"ox":3039,"oy":3040,"ooth":3041,"tom":3042,"uly":3043,"vis":3044,"ville":3045,"yers":3046,"ËĪ":3047,"à¥":3048,"à¸":3049,"ĠX":3050,"Ġ60":3051,"áŀĵáŀĦ":3052,"áŀĵáŀļáŀĬ":3053,"áŀĵáŀ²":3054,"áŀĢáŀļáŀĬ":3055,"áŀĢáŀĩáŀĵ":3056,"áŀĶáŀ¢":3057,"áŀĺáŀļáŀĶáŀŁ":3058,"áŀĺáŁĹ":3059,"áŀĺáŀ¯áŀĢáŀŁ":3060,"áŀŁáŀģ":3061,"áŀıáŀ±":3062,"Ġtax":3063,"áŀĳáŀĶáŀĵ":3064,"áŀĸáŀħ":3065,"áŀĻáŀİ":3066,"áŀĻáŀĪ":3067,"áŀĻáŀļáŀĻ":3068,"áŀĻáŀĤáŀı":3069,"áŁĨáŁĶ":3070,"onor":3071,"onment":3072,"áŀħáŀİ":3073,"áŀĤáŀļáŀĬ":3074,"áŀľáŀĸ":3075,"áŀľáŀķ":3076,"âĢĭáŁĶ":3077,"Ġshe":3078,"Ġsqu":3079,"Ġcopul":3080,"Ġcame":3081,"itive":3082,"itte":3083,"áŀ¢áŀĻ":3084,"Ġinitial":3085,"áŀģáŀĹ":3086,"Ġfin":3087,"Ġfar":3088,"Ġful":3089,"Ġfall":3090,"Ġflow":3091,"Ġfash":3092,"Ġban":3093,"Ġbro":3094,"Ġpot":3095,"Ġput":3096,"Ġmust":3097,"Ġmedia":3098,"Ġmembers":3099,"ionary":3100,"ames":3101,"amom":3102,"ase":3103,"Ġdip":3104,"áŀĴáŀĶ":3105,"áŀīáŀĢ":3106,"áŀīáŀ¢":3107,"ĠCE":3108,"ĠChen":3109,"Ġhous":3110,"áŀļáŀĶáŀĵ":3111,"áŀļáŀĶáŀī":3112,"ĠTo":3113,"ĠTrans":3114,"Ġrev":3115,"Ġrein":3116,"Ġrequ":3117,"ĠKamb":3118,"ĠKul":3119,"Ġeastern":3120,"Ġevery":3121,"ĠAccording":3122,"ĠSur":3123,"ĠSch":3124,"Ġnomin":3125,"ĠPo":3126,"Ġgods":3127,"thaya":3128,"Ġ100":3129,"rid":3130,"rip":3131,"áŀĵáŀĢáŀı":3132,"ulf":3133,"ĠáŀĬáŀĦ":3134,"Ġforced":3135,"Ġstandard":3136,"gend":3137,"áŀļáŀĢáŀĶ":3138,"áŀļáŀĢáŀŁ":3139,"ĠRan":3140,"ĠRom":3141,"imed":3142,"áŀĺáŀĢáŀĵ":3143,"áŀĺáŀĢáŀĳ":3144,"Ġonline":3145,"ĠMer":3146,"ĠMus":3147,"ady":3148,"ots":3149,"otus":3150,"utthaya":3151,"áŀĻáŀĢáŀı":3152,"áŀĺáŀļáŀİáŀĹ":3153,"ĠWith":3154,"Ġprof":3155,"Ġdepend":3156,"áŁłáŁłáŁłáŁł":3157,"Ġsust":3158,"ĠFooth":3159,"áŁĹáŀĤ":3160,"áŁĬáŁĴ":3161,"Ġrate":3162,"Ġrising":3163,"Ġáŀģáŀİ":3164,"ocu":3165,"ocks":3166,"Ġext":3167,"ortheast":3168,"ously":3169,"ĠHe":3170,"ĠáŁ¢áŁ¡":3171,"quial":3172,"Ġtemper":3173,"acks":3174,"áŀĵáŀĩáŀĺ":3175,"Ġleft":3176,"There":3177,"áŀĦáŀħáŀĺ":3178,"Ġclothing":3179,"antly":3180,"rent":3181,"Ġchange":3182,"ranch":3183,"ĠUS":3184,"Ġshort":3185,"Ġcontex":3186,"Ġreliefs":3187,"Ġrelatively":3188,"ardamom":3189,"áŀĤáŀļáŀĴ":3190,"ĠáŁłáŁ¦":3191,"ĠBuddha":3192,"ĠGulf":3193,"Ġmostly":3194,"Ġdishes":3195,"Ġadject":3196,"ĠJuly":3197,"Ġserved":3198,"Ġothers":3199,"overnment":3200,"Ġfolk":3201,"Ġmonarch":3202,"achine":3203,"Ġplaced":3204,"áŀŁáŀħáŀļ":3205,"Ġtowards":3206,"Ġmeas":3207,"Ġmeans":3208,"Ġeven":3209,"Ġunderst":3210,"Ġ2021":3211,"áŀļáŀ¢áŀı":3212,"Ġjour":3213,"Ġbasic":3214,"Ġrecent":3215,"Ġrecogn":3216,"Ġtraditions":3217,"ciÉĻ":3218,"Ġ1990":3219,"loquial":3220,"Ġteam":3221,"Ġquestions":3222,"ensive":3223,"Ġstructures":3224,"Ġsyllables":3225,"ĠáŁ¡áŁ©áŁ§áŁ¥":3226,"Ã©a":3227,"Ġenter":3228,"ĠáŀķáŀĽ":3229,"Ġterms":3230,"ĠDecember":3231,"Ġ80":3232,"Ġoriginal":3233,"ĠSihanoukville":3234,"lands":3235,"ĠáŁ¡áŁ¨áŁ¦":3236,"Ġservice":3237,"áŁ¢áŁłáŁ¡áŁł":3238,"Ġcommunity":3239,"ibr":3240,"ĠKampot":3241,"Ġincreasing":3242,"ney":3243,"áŁ¡áŁ¡áŁ¥":3244,"works":3245,"Ġleading":3246,"áŀļáŀĹáŀĸáŀĸ":3247,"áŁ¡áŁ©áŁ§áŁł":3248,"Ġcontinued":3249,"áŀĽáŀĹáŀĢ":3250,"ompan":3251,"Ġsurrounded":3252,"Ġindependence":3253,"Ġrights":3254,"Ġtypically":3255,"Ġliterary":3256,"ecut":3257,"Ġáŀ§áŀĳ":3258,"Ġdominated":3259,"Ġparts":3260,"Ġpredic":3261,"Ġperformed":3262,"Ġspeakers":3263,"iversity":3264,"Ġneighbour":3265,"Ġobtain":3266,"Ġcerem":3267,"Ġfunction":3268,"Ġhigher":3269,"Ġthought":3270,"ĠChakkraph":3271,"Ġassociated":3272,"ĠCommitte":3273,"ĠWhile":3274,"Ġimprove":3275,"reedom":3276,"Ġwooden":3277,"Ġdeter":3278,"china":3279,"Ġdecline":3280,"Ġkilomet":3281,"Ġintroduced":3282,"Ġshrine":3283,"Ġtheatre":3284,"Ġsacred":3285,"ĠAyutthaya":3286,"ĠTheravada":3287,"ĠIndochina":3288,"medi":3289,"Ġurban":3290,"Ġfemale":3291,"Ġthousands":3292,"Ġgrammatical":3293,"Ġabandoned":3294,"Ġprevious":3295,"Ġcopula":3296,"Ġfashion":3297,"ĠFoothill":3298,"ĠChakkraphat":3299,"ĠCommittee":3300,"'),":3301,".áŁĶ":3302,"21":3303,"61":3304,"69":3305,"70":3306,"As":3307,"Ministry":3308,"On":3309,"PP":3310,"af":3311,"cers":3312,"ducation":3313,"gy":3314,"har":3315,"hib":3316,"ij":3317,"iatic":3318,"kh":3319,"like":3320,"life":3321,"my":3322,"mar":3323,"ned":3324,"not":3325,"new":3326,"ped":3327,"rative":3328,"sc":3329,"sl":3330,"ti":3331,"uh":3332,"uro":3333,"uge":3334,"val":3335,"vir":3336,"vong":3337,"wh":3338,"water":3339,"wise":3340,"xili":3341,"year":3342,"¦áŁł":3343,"Ã§":3344,"Ãª":3345,"ÅĽ":3346,"âĨ":3347,"Ġve":3348,"ĠáŀľáŀĶ":3349,"Ġáŀ¥":3350,"Ġà¤":3351,"áŀĵáŀĺáŀĢ":3352,"áŀĵáŀĺáŀĵ":3353,"áŀĵáŀĥ":3354,"áŀĵáŀıáŀĺ":3355,"áŀĢáŀķ":3356,"áŀĢáŀļáŀĶáŀŁ":3357,"áŀĶáŀĸ":3358,"áŀĺáŀĻ":3359,"áŀĺáŀķ":3360,"áŀĺáŀļáŀĢ":3361,"áŀŁáŀ¢":3362,"áŀŁáŀĴ":3363,"áŀĦáŀľáŀı":3364,"áŀĦáŀ§":3365,"áŀıáŀĻ":3366,"áŀıáŀľ":3367,"áŀıáŀĺáŀĢ":3368,"áŀıáŀŁáŀĵ":3369,"áŀıáŀļáŀĵ":3370,"Ġtree":3371,"Ġtable":3372,"Ġturn":3373,"Ġax":3374,"Ġaver":3375,"áŀĽáŀĦ":3376,"inet":3377,"iness":3378,"áŀĸáŀĤ":3379,"áŀĸáŀĢáŀĺ":3380,"áŀĩáŀŁ":3381,"áŀĩáŀĢáŀĺ":3382,"áŀĩáŀĸáŀĦ":3383,"áŀĩáŀľáŀĦ":3384,"áŀĻáŀľ":3385,"áŀĻáŀļáŀĶ":3386,"áŀĻáŁĹ":3387,"áŀ·áŁĩ":3388,"ery":3389,"áŀħáŀļáŀĶáŀŁ":3390,"Ġown":3391,"áŀĤáŀĬ":3392,"áŀĤáŀĴ":3393,"áŀĤáŀļáŀı":3394,"áŀľáŀĽ":3395,"áŀľáŀģ":3396,"atter":3397,"Ġson":3398,"Ġcost":3399,"Ġcities":3400,"Ġcare":3401,"Ġcould":3402,"enes":3403,"enous":3404,"ency":3405,"ison":3406,"ises":3407,"orn":3408,"oring":3409,"oric":3410,"Ġoffer":3411,"Ġinhab":3412,"anor":3413,"Ġwife":3414,"áŀģáŀļ":3415,"Ġfa":3416,"Ġfut":3417,"Ġfire":3418,"Ġfarm":3419,"Ġfather":3420,"Ġfresh":3421,"Ġfighting":3422,"Ġborrow":3423,"Ġpra":3424,"Ġpond":3425,"arid":3426,"oub":3427,"ingu":3428,"Ġmen":3429,"Ġmok":3430,"ici":3431,"icy":3432,"icences":3433,"asts":3434,"asons":3435,"asiatic":3436,"Ġdated":3437,"Ġdedic":3438,"Ġdocu":3439,"Ġdoub":3440,"áŀłáŀļáŀİ":3441,"Ġtoday":3442,"let":3443,"ĠCath":3444,"ĠCons":3445,"ĠCardamom":3446,"oda":3447,"ĠáŁ©áŁ":3448,"Ġhost":3449,"Ġholid":3450,"áŀļáŀĶáŀĦ":3451,"ĠTa":3452,"cted":3453,"Ġiss":3454,"Ġisol":3455,"Ġlist":3456,"Ġlive":3457,"Ġlines":3458,"Ġliving":3459,"Ġlicences":3460,"Ġeat":3461,"vey":3462,"station":3463,"ĠAl":3464,"ĠAll":3465,"ĠSh":3466,"ĠSite":3467,"ĠSamp":3468,"ĠSbek":3469,"Ġnar":3470,"Ġnet":3471,"Ġnood":3472,"Ġnuc":3473,"Ġnorm":3474,"rog":3475,"roasiatic":3476,"ĠPM":3477,"ĠPol":3478,"urm":3479,"ems":3480,"emed":3481,"embly":3482,"olars":3483,"ollowing":3484,"Ġgo":3485,"Ġgop":3486,"Ġgood":3487,"Ġ150":3488,"cend":3489,"rik":3490,"rial":3491,"riage":3492,"áŀĵáŀĢáŀĢ":3493,"ĠáŀĢáŀŁ":3494,"ĠáŀĢáŀĦáŀĳ":3495,"ĠáŀĢáŀĦáŀĢáŀĺ":3496,"ulpt":3497,"owath":3498,"owever":3499,"Ġstart":3500,"áŀĦáŀĳáŀŁáŀľáŀı":3501,"Ġwithout":3502,"igenous":3503,"aped":3504,"appe":3505,"ĠMan":3506,"ĠMad":3507,"ĠMarch":3508,"ĠMuseum":3509,"ĠMark":3510,"unan":3511,"operation":3512,"estival":3513,"ĠáŁ¡áŁ¡áŁ":3514,"irl":3515,"ote":3516,"ĠBe":3517,"ĠBank":3518,"áŁ¢áŁ£":3519,"áŁ¢áŁ§":3520,"Ġalign":3521,"Ġalmost":3522,"ĠWay":3523,"Ġvi":3524,"Ġvia":3525,"Ġview":3526,"áŀļáŀŁáŀĸ":3527,"ĠAngkorian":3528,"ĠFunan":3529,"áŀĻáŀĶáŀĦ":3530,"eld":3531,"Ġrange":3532,"Ġ198":3533,"áŀļáŀĺáŀĳ":3534,"áŁ¡áŁ§":3535,"ume":3536,"áŀĵáŀĤáŀļ":3537,"ĠHu":3538,"ĠHist":3539,"ĠVi":3540,"ĠáŁ¢áŁ£":3541,"ĠáŁ¢áŁ¨":3542,"áŀĦáŀ¢áŀı":3543,"ĠNorthern":3544,"Ġuses":3545,"Ġseen":3546,"acy":3547,"Ġáŀļáŀľ":3548,"Ġlegend":3549,"áŀĵáŀĳáŀĺ":3550,"ĠDuring":3551,"ĠEast":3552,"ĠEducation":3553,"ĠEuro":3554,"ante":3555,"áŀĺáŀĶáŀİ":3556,"Ġchang":3557,"Ġ2014":3558,"Ġ2017":3559,"Ġsynt":3560,"Ġshared":3561,"Ġcontrast":3562,"oks":3563,"ired":3564,"Ġsport":3565,"Ġspouse":3566,"Ġspace":3567,"arding":3568,"áŀ§áŀĬ":3569,"Ġvers":3570,"ians":3571,"aged":3572,"agaz":3573,"ĠGlobal":3574,"Ġnoted":3575,"Ġadap":3576,"Ġadop":3577,"Ġregist":3578,"Ġregarded":3579,"ildlife":3580,"ograph":3581,"áŁ§áŁł":3582,"Ġimmedi":3583,"Ġprovide":3584,"Ġprovided":3585,"Ġspecial":3586,"Ġtoward":3587,"Ġfollows":3588,"Ġmeant":3589,"Ġevents":3590,"Ġprep":3591,"Ġexpress":3592,"Ġexpressed":3593,"Ġexpected":3594,"Ġ35":3595,"Ġforms":3596,"Ġformed":3597,"Ġformal":3598,"Ġconstitut":3599,"Ġ2002":3600,"Ġ2004":3601,"Ġmainly":3602,"cience":3603,"ĠArts":3604,"Ġattra":3605,"Ġattract":3606,"onsible":3607,"Ġrain":3608,"Ġrail":3609,"Ġorient":3610,"Ġscenes":3611,"Ġsculpt":3612,"Ġdistric":3613,"Ġstructural":3614,"Ġcolonial":3615,"Ġcolloquial":3616,"Ġinterrog":3617,"Ġlocated":3618,"Ġcoast":3619,"Ġcomplete":3620,"Ġinstitut":3621,"Ġinstead":3622,"Ġvisited":3623,"Ġsecondary":3624,"Ġacross":3625,"Ġtyp":3626,"Ġdiff":3627,"Ġrepresented":3628,"Ġcarried":3629,"Ġnorthwest":3630,"Ġvari":3631,"hips":3632,"ĠáŁ§áŁ¥":3633,"Ġcommonly":3634,"Ġlargely":3635,"Ġheritage":3636,"ĠPark":3637,"Ġindicate":3638,"Ġdemand":3639,"Ġrefuge":3640,"Ġauxili":3641,"Ġsentence":3642,"Ġwomen":3643,"Ġgarment":3644,"ĠáŁ¡áŁ©áŁ©áŁ£":3645,"airs":3646,"Ġgrowing":3647,"Ġdiscovered":3648,"Ġdisput":3649,"Ġderiv":3650,"Ġderived":3651,"ĠáŁ¡áŁ©áŁ¥áŁ£":3652,"Ġindependent":3653,"É¨w":3654,"Ġprimary":3655,"Ġnamed":3656,"Ġnames":3657,"Ġcontrol":3658,"áŁ¡áŁ©áŁ©áŁ£":3659,"Ġinscription":3660,"Ġappear":3661,"Ġcoup":3662,"Ġcourt":3663,"ĠCulture":3664,"ĠCultural":3665,"Ġlegal":3666,"Ġtaken":3667,"Ġtakes":3668,"Ġpoint":3669,"ĠSisowath":3670,"ĠPali":3671,"Ġbegins":3672,"Ġproperty":3673,"Ġrecorded":3674,"ĠZone":3675,"Ġtopic":3676,"Ġseparate":3677,"ĠAssembly":3678,"Ġ1953":3679,"Ġwidely":3680,"Ġfriend":3681,"ĠAustroasiatic":3682,"ĠPrince":3683,"Ġsuccess":3684,"Ġenclosure":3685,"Ġnatural":3686,"ĠRamayana":3687,"Ġadverbs":3688,"Ġearlier":3689,"Ġdevatas":3690,"Ġsquare":3691,"Ġpotential":3692,"ĠChenla":3693,"ĠKulen":3694,"ĠRanarid":3695,"ĠMeru":3696,"Ġdepending":3697,"Ġmonarchy":3698,"vironment":3699,"Ġfuture":3700,"ĠCathol":3701,"ĠMarket":3702,"ĠEurope":3703,"agazine":3704,"Ġimmediately":3705,"Ġdistricts":3706,"Ġauxiliary":3707,"ĠRanariddh":3708,"%áŁĶ":3709,"03":3710,"32":3711,"72":3712,"93":3713,"Ad":3714,"Buddh":3715,"IC":3716,"PM":3717,"]).":3718,"aw":3719,"ares":3720,"ael":3721,"band":3722,"cle":3723,"city":3724,"comm":3725,"ding":3726,"div":3727,"down":3728,"ef":3729,"ged":3730,"grim":3731,"hot":3732,"hold":3733,"iosphere":3734,"jun":3735,"known":3736,"lig":3737,"lict":3738,"mit":3739,"nal":3740,"ners":3741,"nuh":3742,"oly":3743,"ply":3744,"pÊ°":3745,"party":3746,"rist":3747,"rang":3748,"rone":3749,"rame":3750,"ratives":3751,"rban":3752,"son":3753,"ton":3754,"tÊ°":3755,"tled":3756,"uated":3757,"upp":3758,"va":3759,"wing":3760,"went":3761,"well":3762,"western":3763,"Ãī":3764,"ÅŃ":3765,"æĹ":3766,"Ġ*":3767,"Ġ-":3768,"Ġ0":3769,"ĠQ":3770,"Ġ|":3771,"ĠáŀĦ":3772,"Ġáŀ±":3773,"Ġ50":3774,"ĭ(":3775,"áŀ¶)":3776,"áŀ¶-":3777,"áŀĵáŀļáŀĶ":3778,"áŀĵáŁĹ":3779,"áŀĵáŀļáŀı":3780,"áŀĵáŀĻáŀĵ":3781,"áŀĵáŀļáŀĦ":3782,"áŀĵáŀĽáŀĢ":3783,"áŀĵáŀĩáŀĵáŀĩ":3784,"áŀĵáŀĺáŀĢáŀĸ":3785,"áŀļáŀī":3786,"áŀĢáŀĢáŀĺ":3787,"áŀĢáŀĨ":3788,"áŀĢáŀļáŀİ":3789,"áŀĶáŀķ":3790,"áŀĶáŀļáŀĳ":3791,"áŀĺáŀī":3792,"áŀĺáŀļáŀĶ":3793,"áŀĺáŀĨ":3794,"áŀĺáŀĪ":3795,"áŀĦáŀļáŀĩ":3796,"áŀıáŀ²":3797,"Ġtar":3798,"Ġties":3799,"Ġtone":3800,"Ġtaking":3801,"Ġach":3802,"Ġaud":3803,"hel":3804,"hem":3805,"hew":3806,"hey":3807,"áŀĽáŀİ":3808,"áŀĽáŀĨ":3809,"áŀĽáŀĶáŀĵ":3810,"áŀĽáŀĥ":3811,"inc":3812,"áŀĳáŀĢ":3813,"áŀĸáŀļ":3814,"áŀĸáŀľ":3815,"áŀĸáŀł":3816,"áŀĻáŀľáŀı":3817,"áŀĻáŀĺáŀĵ":3818,"áŀĻáŀĵáŀĤ":3819,"áŀĻáŀ²":3820,"eries":3821,"ergy":3822,"ones":3823,"onal":3824,"áŀħáŀķ":3825,"áŀħáŀļáŀİ":3826,"Ġopt":3827,"áŀĤáŀŁ":3828,"áŀľáŀł":3829,"áŀľáŀĢáŀĺ":3830,"ata":3831,"atory":3832,"Ġsl":3833,"Ġsla":3834,"Ġsun":3835,"Ġsold":3836,"Ġcul":3837,"Ġcate":3838,"Ġcru":3839,"Ġcamp":3840,"Ġcovered":3841,"enn":3842,"áŀ¼áŁĶ":3843,"orial":3844,"orvong":3845,"iti":3846,"itud":3847,"ales":3848,"Ġinj":3849,"Ġintern":3850,"anak":3851,"Ġwon":3852,"Ġwet":3853,"Ġfil":3854,"Ġfig":3855,"Ġfav":3856,"Ġfind":3857,"Ġfestival":3858,"Ġframe":3859,"Ġbound":3860,"Ġbene":3861,"Ġbranch":3862,"Ġpil":3863,"Ġpast":3864,"Ġpress":3865,"áŀİáŀĵ":3866,"áŀİáŀĩ":3867,"áŀİáŀģ":3868,"arily":3869,"Ġmake":3870,"ama":3871,"ament":3872,"icult":3873,"icks":3874,"Ġdi":3875,"Ġden":3876,"Ġdid":3877,"Ġdict":3878,"Ġdates":3879,"Ġdaugh":3880,"áŀĴáŀĤ":3881,"áŀīáŀĤ":3882,"áŀīáŀļáŀĶáŀŁ":3883,"áŀīáŀľáŀı":3884,"áŀīáŀ±":3885,"ĠCon":3886,"ention":3887,"Ġhus":3888,"Ġhim":3889,"Ġhot":3890,"Ġhand":3891,"Ġhub":3892,"Ġhold":3893,"áŀļáŀĶáŀļáŀĳ":3894,"ĠTower":3895,"ĠTreng":3896,"Ġrecon":3897,"Ġrenew":3898,"ĠKh":3899,"ĠKrom":3900,"ĠKore":3901,"Ġlay":3902,"Ġlos":3903,"Ġlower":3904,"Ġlibr":3905,"Ġec":3906,"Ġetc":3907,"stitut":3908,"ĠAt":3909,"ĠAff":3910,"ĠAug":3911,"ĠSre":3912,"ĠSince":3913,"ĠSanctuary":3914,"áŁīáŁĥ":3915,"Ġnortheast":3916,"ĠPub":3917,"mercial":3918,"lying":3919,"Ġthird":3920,"Ġthrone":3921,"¡áŁ£":3922,"uri":3923,"urally":3924,"chn":3925,"oles":3926,"Ġaspect":3927,"Ġgen":3928,"Ġgreater":3929,"Ġgirl":3930,"ths":3931,"thongs":3932,"áŀļáŀĬáŀĽ":3933,"ceed":3934,"áŀĵáŀĢáŀĴ":3935,"áŀĵáŀĢáŀħáŀĺ":3936,"uss":3937,"ults":3938,"áŀļáŀĳáŀĶ":3939,"áŀļáŀĳáŀĺ":3940,"Ġconqu":3941,"Ġcondition":3942,"ĠIts":3943,"Ġstability":3944,"Ġstrik":3945,"ĠáŀĶáŀĦ":3946,"ĠáŀĶáŀİ":3947,"áŀĦáŀĶáŀī":3948,"áŀĺáŀĢáŀł":3949,"ape":3950,"iding":3951,"ĠMinistry":3952,"ĠMidd":3953,"ĠMachine":3954,"áŀĦáŀŁáŀł":3955,"áŀĦáŀĵáŀĻ":3956,"hers":3957,"ades":3958,"ĠBurm":3959,"ayavarman":3960,"áŁ¢áŁ¡":3961,"áŀĻáŀĢáŀŁ":3962,"áŀĻáŀĢáŀĳ":3963,"áŀĩáŀĵáŀĹ":3964,"ĠWestern":3965,"ĠWildlife":3966,"áŁįâĢĭ":3967,"Ġvoc":3968,"Ġvast":3969,"Ġdeg":3970,"Ġdefore":3971,"áŀıáŀĵáŀĤ":3972,"áŀĽáŀĶáŀĺ":3973,"Ġsuper":3974,"áŁĹáŀĳ":3975,"áŁĹáŀĩ":3976,"áŁĹáŀĬ":3977,"áŁĬáŀ·":3978,"Ġrout":3979,"Ġritual":3980,"Ġ1950":3981,"Ġ1907":3982,"akes":3983,"áŀĪáŀĶ":3984,"áŀļáŀĺáŀĸ":3985,"áŀļáŀĺáŀİ":3986,"Ġcommercial":3987,"Ġworks":3988,"abinet":3989,"ocene":3990,"Ġexper":3991,"Ġexecut":3992,"roup":3993,"ĠHowever":3994,"illing":3995,"ĠáŁ¢áŁ¤":3996,"ĠáŁ¢áŁ©":3997,"ĠNang":3998,"ĠNations":3999,"clus":4000,"acqu":4001,"áŀĻáŀĺáŀĶ":4002,"Ġcenter":4003,"Ġcentre":4004,"Ġlex":4005,"Ġleave":4006,"Ġleaving":4007,"Ġnever":4008,"ĠáŀĩáŀĶ":4009,"áŀıáŀĢáŀİ":4010,"Ġarts":4011,"áŁ£áŁ¡":4012,"áŀļáŀľáŀĺ":4013,"ĠáŁ¡áŁ©áŁ¤":4014,"áŀĵáŀħáŀĺ":4015,"see":4016,"sequ":4017,"Ġclos":4018,"Ġclosed":4019,"ĠEx":4020,"anted":4021,"Ġintens":4022,"áŁ¤áŁ¡":4023,"ĠReamk":4024,"ultural":4025,"Ġ2015":4026,"Ġupper":4027,"áŀ»áŁĨ-":4028,"Ġunivers":4029,"ĠUrban":4030,"Ġitself":4031,"Ġcontains":4032,"Ġconsists":4033,"Ġperm":4034,"ava":4035,"áŀ§áŀĳ":4036,"ĠáŁłáŁ¥":4037,"ague":4038,"ĠGe":4039,"áŀħáŀĢáŀİ":4040,"áŀĽáŀŁáŀĦ":4041,"Ġdish":4042,"Ġadj":4043,"Ġadmin":4044,"ĠJayavarman":4045,"Ġroom":4046,"Ġindigenous":4047,"fficial":4048,"Ġimages":4049,"áŁ¨áŁł":4050,"áŁ¨áŁ¦":4051,"áŀĻáŀĩáŀĺ":4052,"Ġpeace":4053,"Ġpepper":4054,"Ġmonks":4055,"ĠIndex":4056,"áŀŁáŀħáŀļáŀ¢áŀĵ":4057,"Ġenvironment":4058,"Ġenergy":4059,"Ġmarried":4060,"phant":4061,"Ġ2022":4062,"Ġparticip":4063,"teËĲ":4064,"áŀľáŀĺáŀİ":4065,"Ġ2006":4066,"Ġ2007":4067,"Ġmaintain":4068,"Ġcompared":4069,"Ġtraditionally":4070,"áŀĦáŁĹáŀĬ":4071,"Ġoffers":4072,"ĠArmy":4073,"Ġ1998":4074,"Ġraised":4075,"Ġtea":4076,"Ġtechn":4077,"Ġpolite":4078,"Ġpolicy":4079,"Ġfew":4080,"Ġfeature":4081,"Ġaccompan":4082,"Ġquality":4083,"áŀĵáŀĹáŀŁ":4084,"Ġscam":4085,"ĠSouthern":4086,"Ġcolla":4087,"Ġworkers":4088,"ĠáŁ¡áŁ©áŁ§áŁ£":4089,"Ġtransition":4090,"Ġtransport":4091,"Ġfamous":4092,"áŀĶáŀĢáŀļáŀİ":4093,"Ġterm":4094,"ĠStung":4095,"Ġarchitects":4096,"Ġplos":4097,"Ġcompleted":4098,"Ġoutside":4099,"Ġinstru":4100,"Ġearth":4101,"Ġposition":4102,"áŁ¢áŁłáŁłáŁ§":4103,"áŀŁáŀĢáŀĢáŀĺ":4104,"Ġdoes":4105,"Ġdancers":4106,"ĠáŁ¡áŁłáŁł":4107,"ĠLao":4108,"Ġalongside":4109,"mines":4110,"rama":4111,"ramme":4112,"Ġfled":4113,"ĠPeace":4114,"Ġeduc":4115,"Ġlittle":4116,"ĠAnother":4117,"Ġproduced":4118,"Ġdecorative":4119,"Ġdifferences":4120,"Ġprotection":4121,"Ġprotectorate":4122,"áŁ¡áŁ¡áŁ¡áŁ£":4123,"ĠUniversity":4124,"Ġindicates":4125,"Ġestablish":4126,"Ġpronouns":4127,"Ġsettle":4128,"Ġsignific":4129,"Ġdemonst":4130,"Ġefforts":4131,"Ġbeliefs":4132,"Ġvillage":4133,"Ġshows":4134,"Ġgrad":4135,"Ġgrand":4136,"ociation":4137,"Ġbuilding":4138,"ribute":4139,"ÉĳËĲ":4140,"ĠYear":4141,"Ġpractices":4142,"lected":4143,"Ġgrowth":4144,"Ġsubdiv":4145,"Ġliterature":4146,"ecause":4147,"Ġtroops":4148,"Ġcontroll":4149,"á¹£":4150,"á¹ĩ":4151,"Ġpredomin":4152,"Ġreferred":4153,"ĠChams":4154,"Ġinvolved":4155,"Ġneighbors":4156,"Ġidentified":4157,"Ġbusiness":4158,"Ġhighest":4159,"ĠChaktom":4160,"Ġconsisting":4161,"Ġparticularly":4162,"Ġmetres":4163,"Ġvoiced":4164,"Ġkey":4165,"ĠAssociation":4166,"yllabic":4167,"ãĢĬ":4168,"ãĢĭ(":4169,"Ġmotif":4170,"Ġmountain":4171,"Ġmountains":4172,"Ġmovements":4173,"ĠTemples":4174,"Ġheavily":4175,"Ġreplaced":4176,"Ġflooding":4177,"Ġtribes":4178,"Ġdropped":4179,"ĠAirport":4180,"ĠPlan":4181,"Ġclusters":4182,"Ġresponsible":4183,"áŀ«áŀĳ":4184,"Ġsector":4185,"Ġcaused":4186,"Ġflag":4187,"Ġblocks":4188,"Ġportra":4189,"Ġmorph":4190,"Ġmunicipality":4191,"Ġreceived":4192,"ilitary":4193,"Ġaspiration":4194,"Ġalleged":4195,"ĠRepublic":4196,"Ġcaptured":4197,"ĠáŁ¨áŁłáŁ¢":4198,"Ġpossessive":4199,"Ġbelieved":4200,"Ġactivity":4201,"Ġconcerns":4202,"Ġpurpose":4203,"vision":4204,"onorific":4205,"Ġfully":4206,"ĠSchool":4207,"ĠMusl":4208,"Ġtemperatures":4209,"Ġcontext":4210,"Ġmeasuring":4211,"Ġjourney":4212,"Ġentertain":4213,"áŁ¡áŁ¡áŁ¥áŁł":4214,"Ġkilometres":4215,"âĨĹ":4216,"Ġaverage":4217,"Ġfreshwater":4218,"Ġponds":4219,"Ġdedicated":4220,"Ġholidays":4221,"ĠSampot":4222,"Ġgopura":4223,"ĠWayback":4224,"Ġviol":4225,"anteay":4226,"Ġsyntact":4227,"Ġregisters":4228,"Ġsculptures":4229,"Ġinterrogative":4230,"Ġtypes":4231,"Ġrefugees":4232,"Ġfriends":4233,"æĹ¥":4234,"Ġtarget":4235,"Ġculmin":4236,"Ġcateg":4237,"Ġpilgrim":4238,"Ġreconst":4239,"ĠAugust":4240,"ĠMiddle":4241,"Ġdeforestation":4242,"ĠReamker":4243,"Ġadminist":4244,"Ġsubdivided":4245,"ĠChaktomuk":4246,"\"),":4247,"%)":4248,".\"":4249,".-":4250,".\",":4251,"01":4252,"09":4253,"12":4254,"13":4255,"14":4256,"16":4257,"25":4258,"30":4259,"31":4260,"39":4261,"46":4262,"68":4263,"71":4264,"74":4265,"86":4266,"AR":4267,"Al":4268,"Ar":4269,"After":4270,"CL":4271,"Ch":4272,"During":4273,"EC":4274,"FE":4275,"Freedom":4276,"High":4277,"ID":4278,"II":4279,"IN":4280,"Kamb":4281,"Map":4282,"Ori":4283,"Other":4284,"Open":4285,"Since":4286,"])":4287,"aur":4288,"by":4289,"bing":4290,"bap":4291,"com":4292,"cif":4293,"cav":4294,"cultural":4295,"du":4296,"fe":4297,"ger":4298,"ging":4299,"gers":4300,"hum":4301,"hbap":4302,"ih":4303,"ior":4304,"ience":4305,"ield":4306,"ja":4307,"king":4308,"kÊ°":4309,"lit":4310,"mine":4311,"nÉ¨":4312,"ob":4313,"oo":4314,"oid":4315,"oice":4316,"oister":4317,"pts":4318,"pse":4319,"pond":4320,"ports":4321,"ris":4322,"rÃª":4323,"sa":4324,"sh":4325,"ship":4326,"sylla":4327,"ta":4328,"tation":4329,"tations":4330,"uy":4331,"uation":4332,"vings":4333,"vij":4334,"with":4335,"xim":4336,"yment":4337,"ypical":4338,"Ġáŀļáŀł":4339,"ĠÃī":4340,"áŀª":4341,"áŀĿ":4342,"áŀ¶,":4343,"áŀĵáŀ¢áŀĦ":4344,"áŀĵáŀŁáŀĵ":4345,"áŀĵáŀĦáŀĩ":4346,"áŀĵáŀ±":4347,"áŀĵáŀĸáŀĦ":4348,"áŀļáŀĻáŀĸ":4349,"áŀļáŀ²":4350,"áŀļáŀĺáŀĢáŀĸ":4351,"áŀĢáŀĻ":4352,"áŀĢáŀĶáŀĵ":4353,"áŀĶáŀĹ":4354,"áŀĶáŀ¡":4355,"áŀĶáŀĦáŀĵ":4356,"áŀĶáŀļáŀĺ":4357,"áŀĺáŀĩáŀĵáŀĩ":4358,"áŀŁáŀİ":4359,"áŀŁáŀī":4360,"áŀŁáŀĢáŀļ":4361,"áŀĦáŀĦ":4362,"áŀĦáŀĥ":4363,"áŀĦáŀ±":4364,"áŀĦáŀĽáŀĢ":4365,"áŀĦáŀĻáŀĽ":4366,"áŀĦáŀ¬":4367,"áŀıáŀĨ":4368,"Ġtit":4369,"Ġtell":4370,"Ġtreat":4371,"Ġtonal":4372,"Ġamb":4373,"Ġaway":4374,"heng":4375,"áŀĽáŀĻ":4376,"áŀĽáŀĺáŀĢ":4377,"áŀĽáŀĺáŀĵ":4378,"áŀĽáŀļáŀŁ":4379,"áŀĽáŀ¢áŀŁ":4380,"ining":4381,"inations":4382,"inox":4383,"áŀĳáŀĬ":4384,"áŀĳáŀŁáŀĺ":4385,"áŀĳáŀĻáŀŁ":4386,"áŀĸáŀĺ":4387,"áŀĸáŀĸ":4388,"áŀĸáŀİ":4389,"áŀĩáŀľ":4390,"áŀĻáŀĥ":4391,"áŀĻáŀĴáŀĵ":4392,"áŁĭ(":4393,"áŀĬáŀĦáŀļ":4394,"eral":4395,"erved":4396,"onom":4397,"onation":4398,"onents":4399,"reg":4400,"reen":4401,"requ":4402,"áŀħáŀĦ":4403,"áŀħáŀł":4404,"áŀ¸,":4405,"Ġoust":4406,"Ġobs":4407,"áŀĤáŀĸ":4408,"áŀĤáŀĩ":4409,"áŀĤáŀļáŀĶ":4410,"áŀĤáŀĺáŀĢ":4411,"áŀĤáŀļáŀĺ":4412,"áŀĤáŀıáŀŁ":4413,"áŀĤáŀ¦áŀŁ":4414,"áŀĤáŀİáŀĶáŀĢ":4415,"áŀľáŀ¢":4416,"áŀľáŀ¢áŀĦ":4417,"ators":4418,"Ġsil":4419,"Ġsem":4420,"Ġsour":4421,"Ġsilk":4422,"Ġcre":4423,"Ġcoun":4424,"Ġcard":4425,"Ġcrit":4426,"Ġcrow":4427,"Ġcause":4428,"eds":4429,"ederation":4430,"ena":4431,"isc":4432,"isans":4433,"orge":4434,"orcy":4435,"orpor":4436,"iting":4437,"itted":4438,"itants":4439,"alities":4440,"anc":4441,"ane":4442,"anuary":4443,"Ġwat":4444,"Ġway":4445,"Ġwrest":4446,"áŀģáŀĵ":4447,"áŀģáŀĩ":4448,"áŀģáŀľ":4449,"áŀģáŀļáŀĬ":4450,"Ġfer":4451,"Ġfra":4452,"Ġfoc":4453,"Ġfru":4454,"Ġfell":4455,"Ġfund":4456,"Ġfootball":4457,"Ġfrequ":4458,"Ġbal":4459,"Ġbom":4460,"Ġbill":4461,"Ġbrough":4462,"Ġbuses":4463,"Ġbank":4464,"Ġbring":4465,"Ġbird":4466,"Ġprom":4467,"Ġpupp":4468,"áŀİáŀĶ":4469,"áŀİáŀŁ":4470,"arles":4471,"arian":4472,"ouhot":4473,"Ġmut":4474,"ĠmÉĶ":4475,"Ġmilitary":4476,"amily":4477,"oming":4478,"omest":4479,"Ġdr":4480,"Ġdri":4481,"Ġdate":4482,"Ġdomest":4483,"áŀĴáŀĢ":4484,"áŀĴáŀĳ":4485,"áŀĴáŀĬ":4486,"áŀĴáŀĴ":4487,"áŀĴáŀł":4488,"áŀĴáŀĳáŀĵ":4489,"Ġtoget":4490,"ley":4491,"lets":4492,"lection":4493,"level":4494,"levision":4495,"áŀīáŀļ":4496,"ĠCong":4497,"ĠCPP":4498,"ode":4499,"áŀ¹áŁĩ":4500,"Ġhab":4501,"Ġhosp":4502,"ĠTe":4503,"ĠTech":4504,"ĠTypical":4505,"ctares":4506,"Ġrever":4507,"Ġreached":4508,"iling":4509,"ilities":4510,"ĠKrong":4511,"ambod":4512,"Ġlim":4513,"Ġlives":4514,"Ġlotus":4515,"Ġlatter":4516,"Ġlasts":4517,"Ġel":4518,"Ġemb":4519,"Ġ([":4520,"ĠAD":4521,"ĠAm":4522,"ĠAge":4523,"ĠSar":4524,"ĠSere":4525,"ĠSub":4526,"ĠSuch":4527,"áŁīáŁĴ":4528,"Ġnation":4529,"Ġnorthern":4530,"ĠPon":4531,"ĠPress":4532,"urs":4533,"uras":4534,"urice":4535,"cha":4536,"chÃ©a":4537,"emble":4538,"ements":4539,"olk":4540,"olst":4541,"olved":4542,"Ġgold":4543,"Ġgained":4544,"tha":4545,"that":4546,"ĠKhmers":4547,"cean":4548,"áŀĵáŀĢáŀĩ":4549,"áŀĵáŀĢáŀĹ":4550,"racy":4551,"áŀĵáŀĶáŀĺ":4552,"áŀĭáŀĵ":4553,"áŀĭáŀĹ":4554,"áŀĭáŀĢáŀĺ":4555,"ulk":4556,"ulated":4557,"etitive":4558,"ows":4559,"owers":4560,"áŀļáŀĳáŀĳ":4561,"Ġconver":4562,"Ġconcept":4563,"Ġconjun":4564,"Ġcondu":4565,"Ġfort":4566,"Ġstre":4567,"Ġstar":4568,"Ġstop":4569,"Ġstreet":4570,"Ġstreng":4571,"Ġ24":4572,"áŀļáŀĢáŀı":4573,"áŀļáŀĢáŀħ":4574,"ĠRel":4575,"lared":4576,"laize":4577,"ĠáŀĶáŀī":4578,"áŀĦáŀĢáŀĦáŀĢáŀĺ":4579,"áŀĦáŀĶáŀĦ":4580,"áŀĺáŀĢáŀĩ":4581,"app":4582,"apital":4583,"ida":4584,"idity":4585,"ĠMal":4586,"ĠMar":4587,"ĠMic":4588,"ĠMost":4589,"ĠMany":4590,"ĠMond":4591,"une":4592,"unist":4593,"ĠáŁ¡áŁ§":4594,"ĠáŁ¡áŁ©":4595,"adow":4596,"adium":4597,"othes":4598,"ĠBC":4599,"ĠBo":4600,"ĠBay":4601,"ĠBrah":4602,"ĠBelt":4603,"ĠBecause":4604,"ĠBanteay":4605,"ivong":4606,"áŁ¢áŁ¤":4607,"áŀĻáŀĢáŀĦáŀĳ":4608,"áŀĻáŀĢáŀĦáŀĢáŀĺ":4609,"respond":4610,"udong":4611,"áŀĺáŀļáŀĹ":4612,"áŀĩáŀĵáŀĵ":4613,"áŀĩáŀĵáŀĳ":4614,"áŀĩáŀĵáŀĬ":4615,"oses":4616,"Ġáŀĺáŀł":4617,"Ġval":4618,"Ġvary":4619,"Ġvict":4620,"Ġprop":4621,"Ġpros":4622,"ials":4623,"ounced":4624,"áŀĽáŀĶáŀİ":4625,"áŀĽáŀĶáŀī":4626,"Ġkilled":4627,"Ġsuff":4628,"ĠFore":4629,"áŀĻáŀĶáŀħ":4630,"áŁĬáŀ¶":4631,"andal":4632,"Ġrat":4633,"Ġrank":4634,"Ġricks":4635,"Ġ194":4636,"Ġ1962":4637,"áŀļáŀĸáŀĶ":4638,"Ġworship":4639,"ocracy":4640,"Ġexcept":4641,"Ġextend":4642,"ify":4643,"ifying":4644,"umed":4645,"áŀĵáŀĤáŀļáŀĵ":4646,"áŀĵáŀĤáŀļáŀľáŀı":4647,"ĠHen":4648,"áŀıáŀŁáŀī":4649,"ĠThree":4650,"ĠThrough":4651,"ĠNath":4652,"cles":4653,"Ġsec":4654,"Ġsex":4655,"Ġseat":4656,"acent":4657,"acuated":4658,"áŀļáŀİáŀ«áŀĳ":4659,"áŀĦáŀĬáŀĽ":4660,"pping":4661,"ĠChong":4662,"ĠChrist":4663,"ĠChhbap":4664,"ĠCharles":4665,"Ġleav":4666,"Ġáŀ¢áŀĩ":4667,"áŀıáŀĺáŀł":4668,"ĠInt":4669,"áŁ¡áŁłáŁł":4670,"áŀĦáŀĺáŀł":4671,"áŀĽáŀĵáŀĻ":4672,"áŁ£áŁł":4673,"Ġcloister":4674,"ĠDem":4675,"ĠDiv":4676,"ĠDvij":4677,"áŀĺáŀĶáŀī":4678,"Ġintend":4679,"Ġintonation":4680,"overy":4681,"áŁ¤áŁ£":4682,"áŁĬáŀ¸âĢĭ":4683,"ulture":4684,"ultane":4685,"Ġ2016":4686,"ptember":4687,"ranÃ§":4688,"Ġhealth":4689,"Ġhectares":4690,"áŀ»áŁĨâĢĭ":4691,"ĠLong":4692,"Ġunknown":4693,"ĠUpper":4694,"Ġabuses":4695,"Ġshould":4696,"Ġrelatives":4697,"Ġconservation":4698,"ĠOne":4699,"ĠOpen":4700,"Ġparty":4701,"irection":4702,"áŀĵáŀļáŀĻ":4703,"Ġspread":4704,"avil":4705,"áŀ§áŀŁáŀĹ":4706,"áŀ§áŀĶáŀĢáŀļáŀİ":4707,"ustom":4708,"áŀ¯áŀĦ":4709,"áŀ¯áŀĢáŀĩáŀĵ":4710,"ĠáŁłáŁ£":4711,"ĠáŁłáŁ©":4712,"ĠGu":4713,"ĠGer":4714,"ĠGames":4715,"ĠGovernment":4716,"ĠGroup":4717,"Ġyet":4718,"ditional":4719,"Ġtrain":4720,"Ġtrade":4721,"ieces":4722,"Ġdiss":4723,"Ġdisappe":4724,"Ġadded":4725,"Ġregions":4726,"ipet":4727,"mpÅŃ":4728,"ĠJo":4729,"ĠJanuary":4730,"ĠJune":4731,"Ġroof":4732,"Ġindirect":4733,"áŀ¥áŀ¡":4734,"áŀĻáŀĽáŀĦ":4735,"ressing":4736,"Ġinform":4737,"Ġresources":4738,"Ġresults":4739,"Ġmonk":4740,"Ġproviding":4741,"Ġcommitted":4742,"inds":4743,"Ġplay":4744,"Ġplaces":4745,"Ġplayed":4746,"bsite":4747,"Ġens":4748,"Ġgovernor":4749,"Ġgovernments":4750,"Ġmarriage":4751,"amples":4752,"Ġevil":4753,"Ġevacuated":4754,"Ġunderg":4755,"Ġ2024":4756,"teg":4757,"Ġprec":4758,"Ġexpl":4759,"Ġremn":4760,"Ġ90":4761,"Ġjew":4762,"Ġrivers":4763,"Ġrival":4764,"áŀĢáŀĽáŀľ":4765,"Ġ2001":4766,"Ġ2005":4767,"Ġ2008":4768,"Ġ2009":4769,"ikka":4770,"Ġbase":4771,"Ġphot":4772,"ĠáŁ£áŁł":4773,"ĠáŁ£áŁłáŁł":4774,"ĠáŁ£áŁ¥":4775,"Ġcompound":4776,"Ġcomposed":4777,"áŀĸáŀĽáŀļáŀĬ":4778,"Ġdescend":4779,"Ġelephant":4780,"áŀĦáŁĹáŀĵ":4781,"Ġ1992":4782,"Ġ1997":4783,"Ġattem":4784,"Ġattacked":4785,"Ġattached":4786,"Ġattacks":4787,"áŀĺáŀĬáŀĦáŀķ":4788,"Ġracing":4789,"Ġtex":4790,"Ġteach":4791,"Ġtelevision":4792,"ession":4793,"Ġpolice":4794,"Ġ1979":4795,"Ġarchaeological":4796,"lication":4797,"Ġaccount":4798,"Ġaccomm":4799,"Ġcultiv":4800,"Ġscale":4801,"Ġclassification":4802,"Ġcoll":4803,"Ġdeclared":4804,"Ġworking":4805,"ĠáŁ¡áŁ©áŁ§áŁ©":4806,"haw":4807,"Ġentrance":4808,"ĠáŀķáŀĦáŀĬ":4809,"Ġfounded":4810,"Ġfoundation":4811,"ĠStates":4812,"Ġarchitectural":4813,"Ġcoff":4814,"Ġincorpor":4815,"ifications":4816,"Ġ86":4817,"ĠSenate":4818,"Ġ1863":4819,"Ġacres":4820,"ĠProt":4821,"áŁ¢áŁłáŁłáŁł":4822,"áŁ¢áŁłáŁłáŁ¤":4823,"Ġoriginated":4824,"áŀıáŀķáŀĦ":4825,"áŀıáŀķáŀĽáŀŁ":4826,"Ġupon":4827,"Ġrepresenting":4828,"Ġrepresentation":4829,"Ġcarvings":4830,"Ġimpact":4831,"ĠáŀļáŀĶáŀĶáŀĵ":4832,"Ġclaimed":4833,"ĠáŁ¢áŁłáŁłáŁ¤":4834,"ĠáŁ¢áŁłáŁłáŁ§":4835,"ĠLaw":4836,"Ġserves":4837,"Ġofficials":4838,"Ġofficially":4839,"2011":4840,"Ġpersons":4841,"Ġlandmines":4842,"áŁ¢áŁłáŁ¡áŁ¡":4843,"Ġvariety":4844,"ixes":4845,"ĠCentury":4846,"Ġcommunists":4847,"Ġobjects":4848,"Ġcorner":4849,"Ġcorruption":4850,"Ġweak":4851,"Ġhighly":4852,"ĠKampong":4853,"ĠMaurice":4854,"Ġforests":4855,"Ġdivis":4856,"Ġdivine":4857,"Ġincrease":4858,"Ġindicated":4859,"Ġsymbolic":4860,"Ġ70":4861,"Ġsets":4862,"Ġvillagers":4863,"Ġleader":4864,"Ġleaders":4865,"Ġshowing":4866,"áŁ¡áŁ©áŁ§áŁ©":4867,"Ġeconomy":4868,"endra":4869,"liament":4870,"Ġscholars":4871,"Ġsoutheast":4872,"ĠRoad":4873,"ivalent":4874,"ĠáŁ¢áŁłáŁ¡áŁ£":4875,"ĠáŁ¡áŁ©áŁ©áŁ§":4876,"ĠáŁ¡áŁ©áŁ©áŁ¨":4877,"Ġspiritual":4878,"Ġsupported":4879,"Ġcontinuous":4880,"Ã¢mpÅŃ":4881,"ĠYouth":4882,"Ġinvestig":4883,"ront":4884,"venir":4885,"Ġpassed":4886,"Ġpasseng":4887,"áŀĵáŀĢáŀĬáŀĦ":4888,"Ġconcent":4889,"Ġdeaths":4890,"Ġindustrial":4891,"Ġmonuments":4892,"Ġspecific":4893,"Ġdistinction":4894,"ÉĶËĲ":4895,"Ġcase":4896,"Ġprimarily":4897,"Ġredup":4898,"Ġappeal":4899,"ĠáŀĺáŀĢáŀļ":4900,"Ġcouple":4901,"ashing":4902,"Ġequinox":4903,"Ġequivalent":4904,"Ġconnecting":4905,"áŀĦáŀ¢áŀīáŀĤ":4906,"Ġlegacy":4907,"Ġnearby":4908,"ĠáŁ¡áŁ©áŁ¦áŁ©":4909,"Ġspeaker":4910,"Ġidentity":4911,"reetMap":4912,"Ġoblig":4913,"Ġoperating":4914,"Ġcurry":4915,"Ġcurrent":4916,"Ġcrab":4917,"annikka":4918,"Ġdestinations":4919,"ĠTravel":4920,"Ġbeginning":4921,"Ġsteps":4922,"Ġdefe":4923,"Ġminority":4924,"Ġdepicting":4925,"áŁ©áŁ¨":4926,"Ġautonom":4927,"Ġwearing":4928,"Ġfacto":4929,"Ġmeters":4930,"ĠWhite":4931,"Ġresulted":4932,"Ġtranslated":4933,"Ġcharacteristics":4934,"Ġavail":4935,"Ġavoid":4936,"Ġaffect":4937,"Ġsaw":4938,"Ġmotorcy":4939,"ĠTemple":4940,"ĠSeptember":4941,"Ġruler":4942,"Ġrunning":4943,"Ġrespectively":4944,"Ġsurvived":4945,"Ġeffectively":4946,"Ġpatterns":4947,"Ġdrop":4948,"Ġloan":4949,"Ġprogramme":4950,"Ġannual":4951,"Ġannounced":4952,"Ġcombination":4953,"Ġlearn":4954,"Ġcluster":4955,"Ġcontributed":4956,"Ġrelationships":4957,"Ġeventually":4958,"Ġpreceding":4959,"Ġterritorial":4960,"Ġoccupation":4961,"Ġoccupied":4962,"Ġcosmological":4963,"This":4964,"Ġsouvenir":4965,"Ġcovers":4966,"Ġcrimes":4967,"Ġfloating":4968,"Ġmissionaries":4969,"ophon":4970,"Ġmonsoon":4971,"Ġmonsoons":4972,"Ġconsiderable":4973,"Ġcelebr":4974,"Ġcelebrated":4975,"Ġanalysed":4976,"StreetMap":4977,"Ġtaxi":4978,"Ġfinan":4979,"Ġflowers":4980,"Ġdiph":4981,"Ġhouses":4982,"ĠKambu":4983,"Ġnominal":4984,"ĠPoipet":4985,"áŀļáŀĢáŀĶáŀļáŀĶ":4986,"ĠWithin":4987,"Ġsustained":4988,"Ġunderstood":4989,"ciÉĻÅĭ":4990,"ĠáŁ¡áŁ¨áŁ¦áŁ£":4991,"Ġincreasingly":4992,"Ġneighbouring":4993,"slam":4994,"Ġmokot":4995,"Ġdoubt":4996,"ĠConservation":4997,"Ġlisted":4998,"Ġeaten":4999,"ĠManet":5000,"Ġviewed":5001,"ĠViá¹£":5002,"Ġadapted":5003,"Ġorientation":5004,"Ġinstitutions":5005,"Ġdifficult":5006,"Ġvariations":5007,"ĠCatholics":5008,"Adject":5009,"ĠQu":5010,"Ġachie":5011,"hemes":5012,"Ġcrucif":5013,"itiative":5014,"Ġinternal":5015,"Ġfigures":5016,"Ġhusband":5017,"Ġrenewable":5018,"ĠKorea":5019,"ĠAffairs":5020,"ĠBurmese":5021,"Ġroute":5022,"Ġlexical":5023,"Ġpermits":5024,"ĠGeorge":5025,"Ġadjacent":5026,"Ġenvironmental":5027,"Ġeducated":5028,"Ġsignificant":5029,"Ġpredominantly":5030,"Ġmotifs":5031,"Ġmorphology":5032,"Ġentertainment":5033,"Ġcategories":5034,"Ġpilgrims":5035,"Ġadministrative":5036,"Opened":5037,"Ġousted":5038,"Ġcardinal":5039,"Ġcauseway":5040,"Ġbillion":5041,"Ġbrought":5042,"Ġpuppet":5043,"Ġtogether":5044,"Ġhospital":5045,"ĠBayon":5046,"responding":5047,"Ġranked":5048,"Ġrickshaw":5049,"Ġleaves":5050,"ĠDvijendra":5051,"Ġintended":5052,"ĠOpenStreetMap":5053,"Ġinformation":5054,"Ġaccommod":5055,"Ã¢mpÅŃchÃ©a":5056,"Ġautonomous":5057,"ĠViá¹£á¹ĩ":5058,"Ġcruciform":5059,"',":5060,"').":5061,".)áŁĶ":5062,"/;":5063,"33":5064,"34":5065,"35":5066,"300":5067,"43":5068,"49":5069,"56":5070,"75":5071,"79":5072,"85":5073,"99":5074,"AP":5075,"According":5076,"Com":5077,"De":5078,"Ext":5079,"FC":5080,"From":5081,"Following":5082,"LO":5083,"Most":5084,"Nang":5085,"New":5086,"OV":5087,"Official":5088,"Pro":5089,"Some":5090,"SAR":5091,"Tra":5092,"TAC":5093,"UN":5094,"VO":5095,"Wh":5096,"When":5097,"aign":5098,"aff":5099,"aise":5100,"bon":5101,"bre":5102,"bes":5103,"bÉĳ":5104,"born":5105,"buri":5106,"cer":5107,"car":5108,"col":5109,"cue":5110,"ches":5111,"cross":5112,"da":5113,"di":5114,"dar":5115,"dic":5116,"ee":5117,"eo":5118,"ey":5119,"eur":5120,"eap":5121,"east":5122,"eograph":5123,"from":5124,"fect":5125,"five":5126,"fts":5127,"fact":5128,"final":5129,"gred":5130,"government":5131,"hist":5132,"hind":5133,"hayana":5134,"ient":5135,"iences":5136,"ients":5137,"ioration":5138,"ket":5139,"lom":5140,"leng":5141,"ma":5142,"mon":5143,"mot":5144,"making":5145,"mark":5146,"mosphere":5147,"ns":5148,"nest":5149,"nast":5150,"nac":5151,"ness":5152,"ois":5153,"pl":5154,"pers":5155,"pura":5156,"phemes":5157,"ration":5158,"rul":5159,"rity":5160,"ratic":5161,"sar":5162,"set":5163,"tly":5164,"two":5165,"there":5166,"tuk":5167,"tÉ¨w":5168,"uon":5169,"ued":5170,"uet":5171,"uity":5172,"uese":5173,"uced":5174,"ubs":5175,"uÉĻj":5176,"uaries":5177,"van":5178,"vol":5179,"vate":5180,"vals":5181,"vana":5182,"vann":5183,"where":5184,"ware":5185,"words":5186,"yle":5187,"ystem":5188,"ytic":5189,"ynast":5190,"zed":5191,"zen":5192,"¡áŁł":5193,"¨áŁ¡":5194,"³n":5195,"Ã¡":5196,"Ã³n":5197,"Ä«":5198,"É¡":5199,"Éĵ":5200,"ãĤ":5201,"åł":5202,"Ġ:":5203,"Ġ=":5204,"Ġx":5205,"Ġáŀ¶":5206,"Ġáŀī":5207,"Ġáŀ¡":5208,"Ġáŀĭ":5209,"Ġut":5210,"ĠáŀĴáŀĵ":5211,"Ġ..":5212,"áŀ¶(":5213,"áŀ¶áŁĸ":5214,"áŀĵáŀĦáŀĢ":5215,"áŀĵáŀļáŀŁ":5216,"áŀĵáŀļáŀľ":5217,"áŀĵáŀĻáŀĽ":5218,"áŀļáŀļáŀĬ":5219,"áŀļáŀ¢áŀĦ":5220,"áŀļáŀĦáŀĶ":5221,"áŀļáŁĹ":5222,"áŀļáŀĥ":5223,"áŀļáŀĽáŀĢ":5224,"áŀļáŀĴáŀĺ":5225,"áŀļáŀĻáŀĽ":5226,"áŀĢáŀĦ":5227,"áŀĢáŀļáŀĶ":5228,"áŀĢáŀĻáŀĢ":5229,"áŀĢáŀıáŀĺ":5230,"áŀĢáŀĢáŀŁ":5231,"áŀĢáŀĴáŀĺ":5232,"áŀĢáŀĩáŀĵáŀĩ":5233,"áŀĢáŀ¬":5234,"áŀĶáŀĦáŀĶ":5235,"áŀĶáŀĬáŀĽ":5236,"áŀĶáŀŁáŀĦ":5237,"áŀĶáŀĶáŀĬ":5238,"áŀĺáŀĦ":5239,"áŀĺáŀĲ":5240,"áŀĺáŀĺáŀĵ":5241,"áŀŁáŀ¡":5242,"áŀŁáŀļáŀĶáŀŁ":5243,"áŀĦáŀľáŀĶ":5244,"áŀĦáŀĺáŀĢ":5245,"áŀĦáŀĻáŀŁ":5246,"áŀĦáŀļáŀľ":5247,"áŀĦáŀ²":5248,"áŀıáŀļáŀĢ":5249,"áŀıáŀļáŀŁ":5250,"áŀıáŀļáŀĺ":5251,"áŀıáŀĥ":5252,"áŀıáŀ¬":5253,"Ġtr":5254,"Ġtab":5255,"Ġtort":5256,"Ġtied":5257,"Ġtuk":5258,"Ġang":5259,"Ġaps":5260,"hear":5261,"heastern":5262,"herent":5263,"áŀĽáŀ¡":5264,"áŀĽáŀ±":5265,"áŀĽáŀĽáŀĵ":5266,"áŀĽáŀĬáŀĽ":5267,"áŀĽáŀ¢áŀĵ":5268,"áŀĽáŀļáŀĽ":5269,"áŀĽáŀĺáŀĢáŀĸ":5270,"áŀĽáŀĦáŀķ":5271,"inf":5272,"inpe":5273,"inhab":5274,"áŀĳáŀĸ":5275,"áŀĸáŀĶ":5276,"áŀĸáŀĴ":5277,"áŀĸáŀĲ":5278,"áŀĸáŀĺáŀĴ":5279,"áŀĩáŀ¢":5280,"áŀĩáŀĹ":5281,"áŀĩáŀļáŀĬ":5282,"áŀĻáŀ±":5283,"áŀĻáŀ¥áŀİ":5284,"áŀ·$":5285,"áŀ·áŁĴ":5286,"áŁĭ,":5287,"áŀ»áŁĶ":5288,"áŀĬáŀĦáŀĺ":5289,"áŀĬáŀŁáŀĢáŀļ":5290,"ero":5291,"erted":5292,"onut":5293,"onse":5294,"rees":5295,"reme":5296,"áŀħáŀĽ":5297,"áŀħáŀĨ":5298,"áŀħáŀĶáŀĵ":5299,"áŀħáŀŁáŀĺ":5300,"áŀħáŀ¡":5301,"áŀħáŀ¢áŀĵ":5302,"áŀħáŀŁáŀĦ":5303,"áŀ¸)":5304,"áŀĤáŀĤ":5305,"áŀĤáŀ¢":5306,"áŀĤáŀļáŀĳ":5307,"áŀĤáŀıáŀĵ":5308,"áŀĤáŀĤáŀĦ":5309,"áŀľáŀİ":5310,"áŀľáŀĴ":5311,"áŀľáŀŁáŀĺ":5312,"áŀľáŀ¢áŀĵ":5313,"áŀľáŀħáŀĺ":5314,"áŀľáŀħáŀĵ":5315,"áŀľáŀ¯áŀĢáŀŁ":5316,"ator":5317,"atanak":5318,"Ġsounds":5319,"Ġsize":5320,"Ġsanct":5321,"Ġsacked":5322,"Ġsanctuary":5323,"Ġsolst":5324,"Ġcy":5325,"Ġche":5326,"Ġcat":5327,"Ġcut":5328,"Ġcel":5329,"Ġcred":5330,"Ġcreat":5331,"Ġcross":5332,"Ġcoda":5333,"Ġcabinet":5334,"Ġcustom":5335,"edition":5336,"edding":5337,"eness":5338,"isations":5339,"ork":5340,"orced":5341,"orruption":5342,"iture":5343,"itarian":5344,"áŀ¢áŀļ":5345,"áŀ¢áŀħ":5346,"ali":5347,"also":5348,"áŁĦáŁĶ":5349,"Ġinland":5350,"Ġingred":5351,"Ġinherent":5352,"ances":5353,"ancy":5354,"Ġwa":5355,"Ġwr":5356,"Ġwro":5357,"Ġwine":5358,"áŀģáŀĬ":5359,"Ġfail":5360,"Ġfree":5361,"Ġface":5362,"Ġfair":5363,"Ġfreedom":5364,"ĠfranÃ§":5365,"Ġbamb":5366,"Ġbri":5367,"Ġbest":5368,"Ġbric":5369,"Ġbrew":5370,"Ġbrace":5371,"Ġbless":5372,"Ġbrid":5373,"Ġpal":5374,"Ġpill":5375,"Ġpag":5376,"Ġpowers":5377,"Ġpavil":5378,"Ġpork":5379,"áŀİáŀĸ":5380,"áŀİáŀľ":5381,"áŀİáŀľáŀı":5382,"aring":5383,"aras":5384,"arry":5385,"oured":5386,"Ġmer":5387,"Ġmat":5388,"Ġmed":5389,"Ġmod":5390,"Ġmater":5391,"Ġmight":5392,"Ġmounds":5393,"Ġmother":5394,"Ġmaster":5395,"Ġmilk":5396,"Ġmagazine":5397,"Ġmakes":5398,"ione":5399,"amm":5400,"ican":5401,"icing":5402,"icles":5403,"icism":5404,"ases":5405,"Ġday":5406,"Ġdone":5407,"Ġdwell":5408,"Ġdata":5409,"Ġdirection":5410,"Ġdynast":5411,"áŀĹáŀŁ":5412,"áŀĴáŀļ":5413,"áŀĴáŀı":5414,"áŀĴáŀĸ":5415,"áŀĴáŀļáŀĶ":5416,"áŀĴáŀĢáŀĺ":5417,"áŀĴáŀļáŀĳ":5418,"áŀĴáŀĸáŀĽ":5419,"áŀłáŀĻ":5420,"Ġtoo":5421,"lease":5422,"áŀīáŀľ":5423,"áŀīáŀ²":5424,"ĠCl":5425,"ĠCan":5426,"ĠCivil":5427,"ĠCambod":5428,"oded":5429,"odas":5430,"ĠáŁ©áŁł":5431,"Ġhit":5432,"Ġhum":5433,"Ġhard":5434,"Ġharm":5435,"Ġhung":5436,"Ġhims":5437,"Ġhidd":5438,"Ġhier":5439,"Ġhapp":5440,"áŀļáŀĶáŀĸ":5441,"áŀļáŀĶáŀĬ":5442,"áŀļáŀĶáŀľ":5443,"áŀļáŀĶáŀĶáŀļ":5444,"áŀļáŀĶáŀĶáŀģ":5445,"ĠTwo":5446,"áŀĲáŀĹ":5447,"áŁĥ)":5448,"áŁĥáŁĴ":5449,"áŀķáŀĦ":5450,"Ġreb":5451,"Ġreign":5452,"Ġreach":5453,"Ġretain":5454,"ĠKhe":5455,"ĠKne":5456,"ĠKomp":5457,"ĠKep":5458,"ĠKiri":5459,"ĠKandal":5460,"ĠKÃ¢mpÅŃchÃ©a":5461,"ĠKeo":5462,"ambling":5463,"Ġlost":5464,"Ġluc":5465,"Ġlove":5466,"Ġless":5467,"Ġlink":5468,"Ġeas":5469,"Ġemer":5470,"Ġeight":5471,"vek":5472,"ĠAg":5473,"ĠAmer":5474,"ĠSw":5475,"ĠSam":5476,"ĠSim":5477,"ĠSud":5478,"ĠSports":5479,"áŁīáŀ¸":5480,"áŁīáŀ¶áŁĨ":5481,"áŁīáŀº":5482,"áŁīáŁģáŁĩáŁĶ":5483,"Ġnut":5484,"Ġnothing":5485,"rob":5486,"ĠProm":5487,"ĠPot":5488,"ĠPort":5489,"ĠPost":5490,"ĠPras":5491,"mers":5492,"áŀĨáŀļ":5493,"Ġthus":5494,"Ġthread":5495,"Ġbehind":5496,"urning":5497,"emes":5498,"emple":5499,"empor":5500,"olic":5501,"olocene":5502,"Ġasuras":5503,"Ġgest":5504,"Ġgive":5505,"Ġgate":5506,"Ġgild":5507,"Ġgives":5508,"Ġgave":5509,"Ġgrew":5510,"Ġgames":5511,"thods":5512,"ceived":5513,"áŀºáŁĸ":5514,"áŀŁáŀĺáŀļáŀĹ":5515,"rad":5516,"rand":5517,"races":5518,"áŀĵáŀĶáŀļáŀĳ":5519,"isture":5520,"áŀĭáŀĺ":5521,"áŀĭáŀĬ":5522,"áŀĭáŀľ":5523,"áŀĭáŀ¢":5524,"áŀĭáŀģ":5525,"áŀĭáŀĺáŀŁ":5526,"ulary":5527,"ulok":5528,"eter":5529,"etic":5530,"Ġconve":5531,"Ġconce":5532,"Ġconvers":5533,"Ġforci":5534,"ĠIf":5535,"ĠIslam":5536,"Ġstated":5537,"Ġstates":5538,"Ġstages":5539,"Ġstressed":5540,"Ġstops":5541,"Ġ25":5542,"Ġ26":5543,"Ġ28":5544,"áŀļáŀĢáŀĸ":5545,"ĠRome":5546,"ĠRatanak":5547,"imates":5548,"iments":5549,"imedia":5550,"lab":5551,"lava":5552,"áŀĦáŀĳáŀĺ":5553,"terpre":5554,"áŀĦáŀĶáŀĬ":5555,"áŀĺáŀĢáŀĶ":5556,"áŀĺáŀĢáŀı":5557,"áŀĺáŀĢáŀĽ":5558,"áŀĺáŀĢáŀ²":5559,"aps":5560,"ĠáŀŁáŀİ":5561,"idual":5562,"Ġonce":5563,"ĠMong":5564,"ĠMich":5565,"ĠModern":5566,"ĠMinist":5567,"ĠMedia":5568,"ĠMunicip":5569,"ĠMagazine":5570,"ĠMoly":5571,"ĠMouhot":5572,"ĠMannikka":5573,"áŀĦáŀŁáŀĢáŀĺ":5574,"unx":5575,"unity":5576,"unci":5577,"estial":5578,"Ġwhom":5579,"Ġwhate":5580,"Ġwhite":5581,"Ġwhose":5582,"irt":5583,"irth":5584,"ademic":5585,"ĠBak":5586,"ĠBure":5587,"ĠBiosphere":5588,"ividual":5589,"áŁ¢áŁ¢":5590,"áŀĻáŀĢáŀĸáŀĵ":5591,"áŀĩáŀĵáŀħ":5592,"áŀĩáŀĵáŀľ":5593,"áŀĩáŀĵáŀļáŀĶáŀŁ":5594,"áŀĩáŀĵáŀļáŀĦ":5595,"áŀĩáŀĵáŀŁáŀļ":5596,"Ġoral":5597,"Ġorph":5598,"Ġaltern":5599,"Ġallow":5600,"Ġalone":5601,"Ġalread":5602,"ĠáŀĤáŀİáŀĶáŀĢ":5603,"ĠWik":5604,"Ġvass":5605,"Ġvice":5606,"Ġvide":5607,"Ġproport":5608,"Ġdeal":5609,"Ġdead":5610,"Ġdeemed":5611,"ounts":5612,"Ġkings":5613,"Ġkins":5614,"Ġkilling":5615,"Ġsum":5616,"Ġsubs":5617,"ours":5618,"ourished":5619,"áŀļáŀŁáŀĵ":5620,"áŀļáŀŁáŀłáŀĶ":5621,"ĠFin":5622,"ĠFine":5623,"ĠFact":5624,"ĠFootball":5625,"ĠFollowing":5626,"ĠFolk":5627,"áŁĹáŀķ":5628,"áŀĻáŀĶáŀĢ":5629,"áŀĻáŀĶáŀļáŀĳ":5630,"áŁĬáŀ¹":5631,"anding":5632,"andemic":5633,"plemented":5634,"áŀļáŀłáŀĺáŀĵ":5635,"áŀļáŀłáŀĺáŀĬ":5636,"Ġran":5637,"Ġrough":5638,"Ġrises":5639,"Ġ190":5640,"Ġattend":5641,"Ġatmosphere":5642,"aka":5643,"Ġcome":5644,"áŁ¡áŁ©":5645,"áŀĦáŀıáŀĺ":5646,"abet":5647,"abulary":5648,"ocar":5649,"ocated":5650,"ocratic":5651,"oconut":5652,"asted":5653,"áŀĦáŀĩáŀĤáŀıáŀŁ":5654,"Ġexists":5655,"Ġexhib":5656,"Ġexclus":5657,"Ġexcav":5658,"Ġexamples":5659,"iff":5660,"ift":5661,"ifiers":5662,"ortun":5663,"áŀĵáŀĤáŀļáŀľ":5664,"Ġhair":5665,"artz":5666,"ĠHigh":5667,"ĠVol":5668,"ĠVann":5669,"ĠVII":5670,"áŁ¥áŁłáŁł":5671,"áŁ¥áŁ¤":5672,"ĠThus":5673,"rying":5674,"ĠNe":5675,"Ġusage":5676,"áŀĢáŀĵáŀĻ":5677,"quis":5678,"Ġsea":5679,"Ġsee":5680,"áŀĮáŀĵ":5681,"áŀĮáŀĶ":5682,"áŀĮáŀħ":5683,"áŀĮáŀĽáŀĤ":5684,"aches":5685,"áŀĻáŀĺáŀł":5686,"áŀĻáŀĺáŀŁáŀĺ":5687,"Ġlet":5688,"ountry":5689,"Ġnecess":5690,"Ġneck":5691,"Ġáŀ¢áŀĵ":5692,"Ġáŀ¢áŀļ":5693,"Ġáŀ¢áŀŁ":5694,"áŀ±áŀļ":5695,"áŀıáŀĺáŀİ":5696,"áŁ¡áŁłáŁłáŁł":5697,"Ġarrang":5698,"áŁ£áŁ¢":5699,"áŁ£áŁ¦":5700,"ĠáŁ¡áŁ©áŁ£":5701,"áŀĵáŀħáŀĦ":5702,"sely":5703,"áŀĦáŀħáŀı":5704,"Ġclothes":5705,"ĠDh":5706,"ĠDelt":5707,"ĠEn":5708,"ĠEach":5709,"áŀĢáŀĬáŀĽ":5710,"áŀĦáŀģáŀİ":5711,"Ġinteg":5712,"áŁ¤áŁ¨":5713,"áŁ¤áŁ©":5714,"ĠReport":5715,"áŁĬáŀ¸áŁĶ":5716,"Ġchief":5717,"Ġchha":5718,"Ġchoice":5719,"rants":5720,"rances":5721,"lowers":5722,"ĠLand":5723,"ĠLake":5724,"ĠLoe":5725,"ĠLady":5726,"ĠLotus":5727,"Ġunit":5728,"Ġunity":5729,"Ġunits":5730,"ĠUp":5731,"Ġabs":5732,"Ġshall":5733,"Ġshaped":5734,"Ġshadow":5735,"Ġcontact":5736,"Ġcontempor":5737,"Ġrelative":5738,"Ġconserv":5739,"ĠOCL":5740,"ĠOudong":5741,"Ġsphere":5742,"Ġspring":5743,"Ġperceived":5744,"áŀĤáŀļáŀĤ":5745,"áŀĤáŀļáŀĻáŀĵ":5746,"Ġvernac":5747,"áŀ¯áŀĳ":5748,"áŀĺáŀĳáŀĺ":5749,"reds":5750,"Ġincluded":5751,"ĠGreater":5752,"ĠGlaize":5753,"ditionally":5754,"Ġtraff":5755,"áŀĽáŀĳáŀĳ":5756,"áŀĵáŀĸáŀĽ":5757,"Ġnotes":5758,"Ġnotable":5759,"áŀĦáŀĽáŀĦ":5760,"Ġadv":5761,"Ġregul":5762,"Ġregister":5763,"Ġreports":5764,"ÉĻn":5765,"ÉĻp":5766,"ÉĻw":5767,"ĠJacqu":5768,"áŀĻáŀħáŀĦ":5769,"Ġindividual":5770,"ffman":5771,"áŀ¥áŀŁ":5772,"urality":5773,"áŁ§áŁ§":5774,"ĠáŀĽáŀĦ":5775,"Ġpend":5776,"Ġpeak":5777,"ression":5778,"Ġinfused":5779,"Ġresid":5780,"Ġresident":5781,"Ġmonaster":5782,"Ġmonths":5783,"áŀĻáŀĳáŀĳ":5784,"ĠIndones":5785,"Ġcommand":5786,"áŀĢáŀĶáŀİ":5787,"indows":5788,"Ġsomeone":5789,"Ġcannot":5790,"Ġprison":5791,"achan":5792,"áŀĵáŀ¢áŀı":5793,"Ġplacing":5794,"áŀŁáŀħáŀļáŀĩ":5795,"áŀŁáŀħáŀļáŀ¢":5796,"ellig":5797,"Ġenj":5798,"Ġenact":5799,"Ġenough":5800,"áŀĢáŀ¢áŀŁ":5801,"Ġcape":5802,"Ġ[âĨĹ":5803,"áŀĸáŀĵáŀĻ":5804,"áŀĤáŀĺáŀģ":5805,"áŀĤáŀĺáŀļáŀĬ":5806,"Ġmethods":5807,"ampuc":5808,"ferred":5809,"Ġlarger":5810,"Ġunderwent":5811,"phÃ©a":5812,"phabet":5813,"Ġnewly":5814,"Ġexpect":5815,"Ġexports":5816,"Ġexpensive":5817,"Ġexpedition":5818,"Ġ32":5819,"Ġ33":5820,"Ġremote":5821,"Ġmillenn":5822,"ĠáŁ£áŁ¢":5823,"ĠáŁ£áŁłáŁłáŁł":5824,"ĠáŁ£áŁ¥áŁł":5825,"Ġcomputer":5826,"áŁ¡áŁ©áŁ¦áŁł":5827,"áŀĶáŀĶáŀļáŀĺ":5828,"Ġdescript":5829,"Ġelev":5830,"Ġelected":5831,"Ġ1991":5832,"Ġ1995":5833,"Ġattribute":5834,"izes":5835,"Ġrare":5836,"Ġraces":5837,"Ġtext":5838,"áŀĤáŀĵáŀĻ":5839,"Ġwhole":5840,"Ġ1972":5841,"alleries":5842,"Ġcapitals":5843,"Ġaccused":5844,"Ġquinc":5845,"ensions":5846,"Ġdistingu":5847,"Ġclassic":5848,"Ġcolum":5849,"Ġcollect":5850,"Ġmixt":5851,"Ġdecreas":5852,"Ġdecades":5853,"Ġdeveloping":5854,"ĠáŁ¡áŁ©áŁ§áŁ¢":5855,"Ġtransform":5856,"Ġentry":5857,"Ġentrances":5858,"áŀĶáŀĢáŀİ":5859,"Ġterrace":5860,"Ġterraces":5861,"Ġinterv":5862,"Ġinterest":5863,"Ġfounder":5864,"archived":5865,"Ġlocals":5866,"ĠState":5867,"ĠStreet":5868,"ĠStandard":5869,"ribes":5870,"tiles":5871,"tility":5872,"Ġcoordinate":5873,"olden":5874,"Ġ89":5875,"Ġinstall":5876,"Ġ186":5877,"Ġ188":5878,"Ġaccept":5879,"Ġacademic":5880,"Ġagric":5881,"ĠProject":5882,"áŁ¢áŁłáŁłáŁ¥":5883,"áŁ¢áŁłáŁłáŁ¦":5884,"áŁ¢áŁłáŁłáŁ©":5885,"áŀļáŀłáŀĺáŀħ":5886,"áŀıáŀķáŀĦáŀĬ":5887,"áŀıáŀķáŀĽáŀĢ":5888,"Ġtype":5889,"Ġinspir":5890,"áŁīáŁģ)":5891,"Ġprotests":5892,"Ġrepresents":5893,"Ġcarved":5894,"Ġdoors":5895,"Ġinfluences":5896,"áŀļáŀĲáŀĹ":5897,"Ġsociety":5898,"Ġdancing":5899,"Ġrestored":5900,"Ġrestrict":5901,"ĠáŁ¡áŁ¨áŁ¡áŁł":5902,"Ġserving":5903,"ĠArchitect":5904,"ĠArchae":5905,"2020":5906,"Ġ40":5907,"áŀĵáŀĲáŀĻáŀħ":5908,"áŀĤáŀĢáŀİ":5909,"ĠáŁ¤áŁł":5910,"ĠáŁ¤áŁ¤áŁł":5911,"Ġlandsc":5912,"Ġpronunci":5913,"ixed":5914,"mined":5915,"à¤¬":5916,"à¤ľ":5917,"Ġflourished":5918,"Ġpowerful":5919,"ĠCenter":5920,"ĠCentre":5921,"ĠáŁ¦áŁł":5922,"Ġartisans":5923,"Ġcommune":5924,"Ġcommunist":5925,"áŀĳáŀĶáŀĸ":5926,"Ġoccas":5927,"Ġcorresponding":5928,"Ġweek":5929,"Ġweaving":5930,"Ġwealth":5931,"Ġwebsite":5932,"Ġboy":5933,"Ġbooks":5934,"ĠáŁ¨áŁłáŁł":5935,"ĠAncient":5936,"ĠMahayana":5937,"Ġpolitic":5938,"áŀĽáŀķáŀĽ":5939,"Ġwriting":5940,"Ġcontinue":5941,"Ġregional":5942,"Ġproduce":5943,"Ġdecoration":5944,"Ġdifference":5945,"Ġapproach":5946,"Ġ55":5947,"áŀįáŀľáŀĶ":5948,"âĢĭâĢĭâĢĭâĢĭ":5949,"ishing":5950,"Ġmoved":5951,"Ġmoisture":5952,"ĠáŁ¥áŁł":5953,"ĠáŁ¥áŁłáŁł":5954,"Ġhousehold":5955,"Ġ1150":5956,"ĠáŁ¡áŁ¥áŁł":5957,"Ġdepos":5958,"áŁ¡áŁ¡áŁ¨áŁ¡":5959,"Ġarmed":5960,"Ġvisiting":5961,"Ġsettled":5962,"Ġsimply":5963,"Ġsigns":5964,"Ġsigned":5965,"Ġdemocracy":5966,"Ġreflect":5967,"Ġshowed":5968,"áŀŁáŀłáŀļáŀĬ":5969,"Ġscholar":5970,"Ġsouthwest":5971,"Ġsouthwestern":5972,"Ġgarments":5973,"Ġstatue":5974,"ĠRober":5975,"1999":5976,"fully":5977,"Ã¢ng":5978,"Ã¢phÃ©a":5979,"Éĳm":5980,"ĠâĢĿ":5981,"Ġactive":5982,"Ġpractice":5983,"Ġpracticed":5984,"áŀĴáŀķáŀĽáŀĵ":5985,"versial":5986,"Ġgrown":5987,"Ġprocesses":5988,"Ġprocession":5989,"Ġdiscuss":5990,"Ġdiscovery":5991,"iÉĻn":5992,"áŀļáŀĪáŀĺáŀĵ":5993,"áŀĵáŀĢáŀĬáŀĳ":5994,"ĠáŁ¡áŁ¤áŁ£áŁ¡":5995,"Ġsubordinate":5996,"Ġsubsequ":5997,"Ġadditional":5998,"Ġdescribe":5999,"Ġáŀ§áŀĬ":6000,"Ġcashew":6001,"Ġpresence":6002,"Ġpresident":6003,"Ġpreserve":6004,"Ġreduced":6005,"Ġcontroversial":6006,"Ġimported":6007,"Ġimportance":6008,"áŁ¡áŁ©áŁ©áŁ§":6009,"undreds":6010,"á¹Ń":6011,"áŀĢáŀĲáŀĻáŀħ":6012,"Ġtense":6013,"Ġcouples":6014,"Ġcourts":6015,"Ġcourty":6016,"ĠCoed":6017,"ĠCoordinate":6018,"ĠCooperation":6019,"Ġreference":6020,"Ġreferring":6021,"Ġconnected":6022,"ĠáŀŁáŀłáŀĹ":6023,"ĠáŀŁáŀłáŀļáŀĬ":6024,"ĠMonivong":6025,"Ġsugar":6026,"Ġruins":6027,"Ġlevels":6028,"ĠáŁ¡áŁ©áŁ¦áŁł":6029,"Ġheads":6030,"Ġperformance":6031,"Ġinvolve":6032,"Ġinvolves":6033,"2006":6034,"áŀĻáŀĺáŀĢáŀĳ":6035,"Ġoperated":6036,"Ġoperations":6037,"Ġsmaller":6038,"Ġcertain":6039,"Ġcrack":6040,"Ġcrafts":6041,"Ġpoints":6042,"Ġdestro":6043,"ĠSisophon":6044,"ĠPalace":6045,"ĠPallava":6046,"rahok":6047,"Ġconflict":6048,"áŁ¡áŁ¢áŁ¡áŁ¨":6049,"Ġrecords":6050,"Ġdesignated":6051,"Ġkingdoms":6052,"Ġassociation":6053,"Ġdepicted":6054,"uguese":6055,"áŀĦáŀļáŀĶáŀĶáŀģ":6056,"Ġopened":6057,"Ġskill":6058,"Ġskilled":6059,"Ġmyths":6060,"Ġmythical":6061,"Ġmythology":6062,"Ġdrawing":6063,"Ġanalytic":6064,"Ġkept":6065,"ĠNews":6066,"Ġresulting":6067,"Ġphonation":6068,"Ġphonemes":6069,"Ġtranslates":6070,"Ġimproved":6071,"Ġemploys":6072,"Ġemployed":6073,"Ġemployment":6074,"Ġcharacterised":6075,"Ġcharacteristic":6076,"Ġyounger":6077,"century":6078,"kaa":6079,"Äģg":6080,"Ġaffected":6081,"Ġsaid":6082,"Ġmulti":6083,"Ġmultip":6084,"Ġdetail":6085,"Ġlowest":6086,"Ġlasted":6087,"Ġguide":6088,"Ġguarded":6089,"Ġgreatest":6090,"Ġformerly":6091,"Ġstudy":6092,"Ġstudied":6093,"Ġorganization":6094,"Ġkiln":6095,"Ġrules":6096,"Ġexisted":6097,"Ġintroduction":6098,"Ġshrines":6099,"Ġreplacing":6100,"Ġremaining":6101,"Ġproducts":6102,"Ġproductive":6103,"Ġschools":6104,"Ġdistinctive":6105,"oviet":6106,"Ġloose":6107,"ĠAustral":6108,"ĠReserve":6109,"ĠRescue":6110,"ĠáŁ¡áŁ©áŁłáŁ¤":6111,"ĠáŁ¡áŁ©áŁłáŁ§":6112,"Ġsucceed":6113,"Ġlearning":6114,"Ġresponse":6115,"Ġjoined":6116,"Ġquarry":6117,"Ġterritory":6118,"aught":6119,"Ġoccurs":6120,"Ġauthority":6121,"Ġauthorities":6122,"Ġauthoritarian":6123,"Ġcircle":6124,"Ġcircular":6125,"Ġcosmology":6126,"cole":6127,"oeung":6128,"áŀĵáŀĻáŀĢáŀļ":6129,"Ġairport":6130,"áŀħáŁĹáŀĩ":6131,"Ġsections":6132,"Ġfacilit":6133,"Ġfloors":6134,"Ġmodify":6135,"Ġmodifiers":6136,"Ġreturn":6137,"Ġepic":6138,"ĠSombai":6139,"ĠMeanc":6140,"Ġanimals":6141,"Ġarrived":6142,"Ġarrivals":6143,"ĠLeague":6144,"Ġcontaining":6145,"Ġregularly":6146,"Ġinterpreted":6147,"Ġemphasising":6148,"Ġdisplay":6149,"Ġdisplays":6150,"Ġpurposes":6151,"huvana":6152,"Ġfarmers":6153,"Ġbanks":6154,"Ġbroad":6155,"Ġdiplom":6156,"Ġreinterpre":6157,"Ġrequest":6158,"ĠKamboj":6159,"ĠSurin":6160,"Ġnominated":6161,"ĠRoman":6162,"Ġsustain":6163,"Ġextra":6164,"Ġadjective":6165,"Ġadjectives":6166,"Ġrecognized":6167,"Ġ802":6168,"Ġpredicates":6169,"Ġobtaining":6170,"Ġceremonial":6171,"Ġceremony":6172,"Ġdeterioration":6173,"Ġdetermined":6174,"Ġpreviously":6175,"scale":6176,"Ġà¤ķ":6177,"Ġaxis":6178,"Ġaxial":6179,"Ġcostume":6180,"Ġinhabited":6181,"Ġinhabitants":6182,"anorama":6183,"Ġfaces":6184,"Ġdocuments":6185,"Ġdocumented":6186,"Ġhosted":6187,"Ġisolating":6188,"Ġnarratives":6189,"Ġnetwork":6190,"Ġnoodle":6191,"Ġnoodles":6192,"Ġnucle":6193,"Ġnuclear":6194,"ĠMadhuvana":6195,"Ġaligns":6196,"Ġalignment":6197,"ĠHuffman":6198,"Ġchanged":6199,"Ġchanges":6200,"Ġcontrastive":6201,"Ġadopted":6202,"Ġprepared":6203,"Ġpreposition":6204,"Ġconstitutional":6205,"Ġattraction":6206,"Ġattractions":6207,"Ġrainy":6208,"Ġcoastline":6209,"Ġdemanded":6210,"Ġdisputed":6211,"Ġdisputes":6212,"Ġderivation":6213,"Ġderivational":6214,"Buddhism":6215,"áŀĻáŀĵáŀĤáŀļáŀĶ":6216,"Ġoptional":6217,"Ġslaves":6218,"Ġcampaign":6219,"itudes":6220,"Ġinjured":6221,"Ġfilm":6222,"Ġfavour":6223,"Ġfindings":6224,"Ġframework":6225,"Ġbeneath":6226,"Ġdictionary":6227,"Ġdaughter":6228,"Ġlayout":6229,"Ġlosing":6230,"Ġlibrary":6231,"stitute":6232,"Ġconquests":6233,"Ġstrikes":6234,"Ġvocabulary":6235,"Ġexecutive":6236,"ĠáŁ¡áŁ©áŁ¤áŁ¡":6237,"Ġclosest":6238,"Ġuniversities":6239,"Ġtransitional":6240,"Ġplosives":6241,"Ġinstruments":6242,"Ġgradually":6243,"Ġcontrolled":6244,"Ġallegedly":6245,"onorifics":6246,"ĠMuslims":6247,"Ġviolence":6248,"Ġsyntactic":6249,"æĹ¥åł":6250,"Ġtargeted":6251,"Ġreconstruction":6252,"Arch":6253,"FEO":6254,"Orient":6255,"ields":6256,"rÃªme":6257,"syllable":6258,"ĠÃīcole":6259,"Ġtitle":6260,"Ġtreaty":6261,"Ġambig":6262,"Ġobserved":6263,"Ġsource":6264,"Ġcritics":6265,"Ġwrestling":6266,"Ġfraud":6267,"Ġfruits":6268,"Ġpromin":6269,"Ġdomestic":6270,"Ġhabit":6271,"ĠTeav":6272,"ĠTypically":6273,"Ġreverse":6274,"Ġconjunctions":6275,"Ġconducted":6276,"Ġfortifications":6277,"Ġstreets":6278,"ĠMichel":6279,"ĠBooks":6280,"Ġproposed":6281,"Ġsuffici":6282,"ĠForeign":6283,"Ġratio":6284,"ĠHenri":6285,"ĠDemocratic":6286,"ultaneously":6287,"ĠLongvek":6288,"Ġshoulder":6289,"ĠGuide":6290,"ĠJohn":6291,"Ġensemble":6292,"Ġdescendants":6293,"Ġtextiles":6294,"ĠProtest":6295,"Ġdivisions":6296,"Ġpassenger":6297,"Ġreduplication":6298,"Ġavailable":6299,"ĠDvijendrapura":6300,"ĠViá¹£á¹ĩulok":6301,"ExtrÃªme":6302,"SARA":6303,"While":6304,"bÉĳh":6305,"áŀıáŀ¬áŀĺáŀł":6306,"inpeat":6307,"Ġsanctuaries":6308,"Ġsolstice":6309,"Ġcelestial":6310,"Ġwrote":6311,"ĠfranÃ§aise":6312,"Ġbamboo":6313,"Ġbrick":6314,"Ġbridge":6315,"Ġpillars":6316,"áŀĴáŀĸáŀĽáŀģ":6317,"Ġhimself":6318,"Ġhidden":6319,"Ġhierarch":6320,"ĠKneas":6321,"ĠKompong":6322,"Ġluck":6323,"ĠAmerican":6324,"ĠSudachan":6325,"ĠPortuguese":6326,"Ġthreads":6327,"Ġgateway":6328,"Ġconversation":6329,"Ġforcibly":6330,"ĠRatanakiri":6331,"ĠMichael":6332,"ĠMolyvann":6333,"Ġwhatever":6334,"ĠBureau":6335,"áŀĩáŀĵáŀļáŀĦáŀĤ":6336,"Ġallowed":6337,"Ġalready":6338,"Ġvassal":6339,"Ġkinship":6340,"Ġroughly":6341,"Ġarrangement":6342,"ĠDelta":6343,"ĠLoeu":6344,"Ġcontemporary":6345,"ĠOCLC":6346,"Ġvernacular":6347,"ĠJacques":6348,"Ġresidential":6349,"ampuciÉĻ":6350,"Ġquincunx":6351,"Ġcollectively":6352,"Ġmixture":6353,"Ġdecreased":6354,"Ġinspiration":6355,"Ġrestrictions":6356,"ĠáŁ¡áŁ¨áŁ¡áŁłáŁ£áŁ¥":6357,"ĠArchaeolog":6358,"Ġlandscape":6359,"Ġpronunciation":6360,"Ġcrackdown":6361,"ĠMeanchey":6362,"æĹ¥åł±":6363,"ĠViá¹£á¹ĩuloka":6364,"\";":6365,"%.":6366,"'.":6367,"'t":6368,"(?":6369,"):":6370,");":6371,"-,":6372,".:":6373,".).":6374,"/\"":6375,"/)":6376,"/:":6377,"18":6378,"100":6379,"110":6380,"163":6381,"26":6382,"28":6383,"220":6384,"232":6385,"37":6386,"44":6387,"48":6388,"59":6389,"584":6390,"650":6391,"700":6392,"898":6393,"97":6394,"AD":6395,"AM":6396,"An":6397,"Action":6398,"BC":6399,"By":6400,"Bet":6401,"CB":6402,"CC":6403,"Co":6404,"City":6405,"Comp":6406,"Class":6407,"CPP":6408,"CIN":6409,"Corruption":6410,"Dra":6411,"Due":6412,"Ed":6413,"Ex":6414,"EFEO":6415,"Fon":6416,"For":6417,"French":6418,"Go":6419,"GAC":6420,"Geograph":6421,"HI":6422,"HO":6423,"Hist":6424,"How":6425,"Hun":6426,"Kamp":6427,"Le":6428,"List":6429,"Love":6430,"Mon":6431,"Modern":6432,"Or":6433,"Out":6434,"PA":6435,"PK":6436,"Penh":6437,"PEC":6438,"Pubs":6439,"Pali":6440,"PSARA":6441,"Rel":6442,"Ton":6443,"Un":6444,"VA":6445,"VN":6446,"Vis":6447,"Viet":6448,"Wat":6449,"With":6450,"Western":6451,"ZU":6452,"ao":6453,"ais":6454,"aig":6455,"aut":6456,"after":6457,"aÅĽ":6458,"bb":6459,"bh":6460,"bo":6461,"big":6462,"bru":6463,"bok":6464,"bach":6465,"biqu":6466,"bility":6467,"bird":6468,"backed":6469,"based":6470,"box":6471,"birth":6472,"blowers":6473,"cra":6474,"cher":6475,"cad":6476,"cate":6477,"cies":6478,"cks":6479,"ccess":6480,"cÊ°":6481,"cement":6482,"chest":6483,"caËĲ":6484,"cases":6485,"do":6486,"den":6487,"dle":6488,"ders":6489,"dong":6490,"dael":6491,"ebru":6492,"fa":6493,"fen":6494,"fall":6495,"fac":6496,"ften":6497,"fried":6498,"fund":6499,"federation":6500,"family":6501,"gg":6502,"gl":6503,"gn":6504,"gon":6505,"grow":6506,"great":6507,"gov":6508,"green":6509,"galleries":6510,"hi":6511,"hor":6512,"hill":6513,"hans":6514,"hicles":6515,"iodi":6516,"iation":6517,"iest":6518,"ires":6519,"iber":6520,"jum":6521,"ke":6522,"ko":6523,"kr":6524,"kar":6525,"kol":6526,"kai":6527,"kÃ´":6528,"krama":6529,"lar":6530,"los":6531,"later":6532,"light":6533,"lific":6534,"loph":6535,"mi":6536,"ming":6537,"mall":6538,"mount":6539,"mÉĻ":6540,"many":6541,"modern":6542,"nh":6543,"no":6544,"nay":6545,"nology":6546,"nov":6547,"oh":6548,"oon":6549,"oes":6550,"oos":6551,"obs":6552,"oved":6553,"object":6554,"oËĲ":6555,"oven":6556,"pro":6557,"pet":6558,"part":6559,"pac":6560,"post":6561,"pok":6562,"pite":6563,"present":6564,"poration":6565,"paren":6566,"pired":6567,"pieces":6568,"ror":6569,"rical":6570,"rings":6571,"rise":6572,"rÃ¢":6573,"ranted":6574,"rÉĶËĲ":6575,"si":6576,"ser":6577,"sed":6578,"spe":6579,"some":6580,"such":6581,"serv":6582,"siÉĻ":6583,"size":6584,"self":6585,"series":6586,"sÃ¢phÃ©a":6587,"sÉĳm":6588,"small":6589,"tr":6590,"tu":6591,"tat":6592,"tent":6593,"tch":6594,"tra":6595,"then":6596,"teen":6597,"tains":6598,"tels":6599,"tÃ³n":6600,"temple":6601,"uj":6602,"uit":6603,"uan":6604,"uing":6605,"uol":6606,"uong":6607,"uous":6608,"uice":6609,"uments":6610,"uthor":6611,"uarding":6612,"utha":6613,"ufact":6614,"vo":6615,"vant":6616,"via":6617,"vular":6618,"wamp":6619,"wards":6620,"whel":6621,"yd":6622,"yes":6623,"ynt":6624,"yloph":6625,"¦áŁ¥":6626,"©áŁ¢":6627,"¶pp":6628,"Ã¨":6629,"Ã¶pp":6630,"Äĥ":6631,"Äķ":6632,"Åĵ":6633,"É²":6634,"ÉĹ":6635,"Êĭ":6636,"ËĮ":6637,"Ì¤":6638,"ãĥ":6639,"æĸ":6640,"æŁ":6641,"èı":6642,"êľ":6643,"Ġ&":6644,"Ġ)":6645,"Ġ+":6646,"Ġz":6647,"Ġáŀ¾":6648,"Ġáŀ½":6649,"Ġáŀİ":6650,"ĠáŁħ":6651,"Ġil":6652,"Ġrom":6653,"Ġáŀľáŀı":6654,"Ġáŀıáŀĵ":6655,"ĠáŀļáŀŁ":6656,"Ġum":6657,"Ġill":6658,"ĠáŀĽáŀĵ":6659,"ĠáŀĽáŀĢ":6660,"Ġáŀ¿":6661,"Ġide":6662,"ĠáŀĺáŀĢáŀĸ":6663,"Ġáŀ§áŀı":6664,"ĠâĨĹ":6665,"Ġêľ":6666,"áŀ©":6667,"áŀ¶âĢĵ":6668,"áŀ¶âĢĿ":6669,"áŀĵáŀİ":6670,"áŀĵáŀļáŀĢ":6671,"áŀĵáŀľáŀı":6672,"áŀĵáŀĽáŀĺ":6673,"áŀĵáŀ¯":6674,"áŀĵáŀ¯áŀĢáŀŁ":6675,"áŀĵáŀļáŀħáŀĵ":6676,"áŀĵáŀ¯áŀĢáŀļ":6677,"áŀļáŀĦáŀĳ":6678,"áŀļáŀĦáŀĵ":6679,"áŀļáŀĦáŀĸ":6680,"áŀļáŀĦáŀĬ":6681,"áŀļáŀļáŀĻ":6682,"áŀļáŀ¬":6683,"áŀļáŀ¥áŀİ":6684,"áŀļáŀļáŀĢáŀĥ":6685,"áŀļáŀıáŀĵáŀĤ":6686,"áŀĢáŀ¢áŀĦ":6687,"áŀĢáŁĹ":6688,"áŀĢáŀĪ":6689,"áŀĢáŀļáŀĵ":6690,"áŀĢáŀļáŀı":6691,"áŀĢáŀĦáŀĢáŀĺ":6692,"áŀĢáŀĦáŀĻ":6693,"áŀĢáŀķáŀĦáŀĬ":6694,"áŀĢáŀĵáŀĤáŀļáŀľáŀı":6695,"áŀĶáŀł":6696,"áŀĶáŀĨ":6697,"áŀĶáŀļáŀĬ":6698,"áŀĶáŀļáŀĶáŀŁ":6699,"áŀĶáŀħáŀĺ":6700,"áŀĶáŀ²":6701,"áŀĶáŀħáŀĵ":6702,"áŀĶáŀ¥áŀİ":6703,"áŀĶáŀĭáŀĺáŀŁ":6704,"áŀĺáŀĶáŀĵ":6705,"áŀĺáŀĻáŀĢ":6706,"áŀĺáŀĥ":6707,"áŀĺáŀĤáŀĺ":6708,"áŀĺáŀĤáŀĵ":6709,"áŀĺáŀŁáŀıáŀľáŀı":6710,"áŀŁáŀķ":6711,"áŀŁáŀļáŀĬ":6712,"áŀŁáŀŁáŀĺ":6713,"áŀŁáŀĵáŀĢ":6714,"áŀŁáŀļáŀĢ":6715,"áŀŁáŀĽáŀĶ":6716,"áŀŁáŀĢáŀĵ":6717,"áŀŁáŀĬáŀĽ":6718,"áŀŁáŀ¢áŀĵ":6719,"áŀŁáŀ²":6720,"áŀŁáŀłáŀĵ":6721,"áŀŁáŀ¥áŀİ":6722,"áŀŁáŀŁáŀĩ":6723,"áŀŁáŀŁáŀĽ":6724,"áŀŁáŀ¦áŀŁ":6725,"áŀĦáŀıáŀĵ":6726,"áŀĦáŀĴáŀĺ":6727,"áŀĦáŀ¥":6728,"áŀĦáŀ¥áŀİ":6729,"áŀıáŀŁáŀĺ":6730,"áŀıáŀĺáŀĵ":6731,"áŀıáŀļáŀł":6732,"áŀıáŀĪ":6733,"áŀıáŀĽáŀĳ":6734,"áŀıáŀ§áŀı":6735,"áŀıáŀĪáŀĶ":6736,"Ġti":6737,"Ġtal":6738,"Ġtou":6739,"Ġtas":6740,"Ġtri":6741,"Ġtest":6742,"Ġtall":6743,"Ġtrou":6744,"Ġtreas":6745,"Ġtale":6746,"Ġtram":6747,"Ġtried":6748,"Ġtreated":6749,"Ġtrip":6750,"Ġtwent":6751,"Ġtales":6752,"Ġtribute":6753,"Ġturning":6754,"Ġtensions":6755,"Ġtaught":6756,"Ġahe":6757,"Ġast":6758,"Ġaction":6759,"Ġamp":6760,"heries":6761,"áŀĽáŀıáŀĵ":6762,"áŀĽáŀħáŀĺ":6763,"áŀĽáŀ¯":6764,"inh":6765,"inn":6766,"init":6767,"inter":6768,"inary":6769,"includ":6770,"incial":6771,"initial":6772,"inished":6773,"inned":6774,"intels":6775,"áŀĳáŀĤ":6776,"áŀĳáŀķ":6777,"áŀĳáŀļáŀĬ":6778,"áŀĳáŀĦáŀĵ":6779,"áŀĳáŀ¥":6780,"áŀĸáŀĻ":6781,"áŀĸáŀĦáŀĢ":6782,"áŀĸáŀıáŀĺ":6783,"áŀĸáŀļáŀľ":6784,"áŀĸáŀħáŀĺ":6785,"áŀĸáŀ¥áŀİ":6786,"áŀĸáŀ¢áŀŁ":6787,"áŀĸáŀ¢áŀĢ":6788,"áŀĩáŀĳ":6789,"áŀĩáŀĩ":6790,"áŀĩáŀĵáŀĢ":6791,"áŀĻáŀıáŀĵ":6792,"áŀĻáŀļáŀł":6793,"áŀĻáŀļáŀľ":6794,"áŀĻáŀ¢áŀĵ":6795,"áŀĻáŀħáŀĢ":6796,"áŀĻáŀ¥":6797,"áŀĻáŀıáŀĶ":6798,"áŀĻáŁĹáŀĵ":6799,"áŀĻáŀ§áŀĶáŀĢáŀļáŀİ":6800,"áŀ·)":6801,"áŀ·,":6802,"áŀ·-":6803,"áŁĨáŁĴ":6804,"áŁĭ/":6805,"áŁĭáŁĭ":6806,"áŁĭ)áŁĶ":6807,"áŀ»,":6808,"áŀ»áŀ¸":6809,"áŀĬáŀĵ":6810,"áŀĬáŀļ":6811,"áŀĬáŀĦáŀĳ":6812,"áŀĬáŀĦáŀĩ":6813,"áŀĬáŀĢáŀĲ":6814,"erl":6815,"erary":6816,"errace":6817,"Ġthems":6818,"onent":6819,"onors":6820,"áŁģ)áŁĶ":6821,"áŁģâĢĭâĢĭ":6822,"rey":6823,"ream":6824,"reem":6825,"reak":6826,"áŀħáŀĻ":6827,"áŀħáŀħ":6828,"áŀħáŀľ":6829,"áŀħáŀ¢":6830,"áŀħáŀļáŀĶ":6831,"áŀħáŀ¢áŀĦ":6832,"áŀħáŀĻáŀĢ":6833,"áŀħáŀļáŀł":6834,"áŀħáŀĵáŀļ":6835,"áŀħáŀĻáŀĽ":6836,"áŀ¸-":6837,"áŀ¸áŁĴ":6838,"Ġocean":6839,"áŀĤáŀĽ":6840,"áŀĤáŀĹ":6841,"áŀĤáŀĲ":6842,"áŀĤáŀļáŀĩ":6843,"áŀĤáŀĽáŀĶ":6844,"áŀĤáŀļáŀŁ":6845,"áŀĤáŀļáŀł":6846,"áŀĤáŀļáŀľ":6847,"áŀĤáŀĽáŀı":6848,"áŀľáŀ¡":6849,"áŀľáŀļáŀĶáŀŁ":6850,"áŀľáŀĩáŀĵ":6851,"áŀľáŀ±":6852,"áŀľáŀĢáŀļ":6853,"áŀľáŀ²":6854,"áŁĤáŁĶ":6855,"atri":6856,"atistics":6857,"Ġsen":6858,"Ġsan":6859,"Ġsle":6860,"Ġsra":6861,"Ġsate":6862,"Ġsere":6863,"Ġsays":6864,"Ġsits":6865,"Ġsib":6866,"Ġsongs":6867,"Ġsister":6868,"Ġsbai":6869,"Ġsolar":6870,"Ġsources":6871,"Ġscience":6872,"Ġswamp":6873,"Ġcm":6874,"Ġcle":6875,"Ġcro":6876,"Ġcast":6877,"Ġcited":6878,"Ġches":6879,"ĠcÉĳ":6880,"Ġcave":6881,"Ġcement":6882,"Ġcoconut":6883,"ediments":6884,"encies":6885,"áŀ¼âĢĭ":6886,"iss":6887,"isure":6888,"isheries":6889,"áŀ¾áŁĶ":6890,"orer":6891,"orce":6892,"orqu":6893,"orian":6894,"orters":6895,"orcer":6896,"orporation":6897,"esides":6898,"esters":6899,"ita":6900,"itc":6901,"itu":6902,"ites":6903,"itation":6904,"itous":6905,"itime":6906,"áŀ¢áŀĤ":6907,"áŀ¢áŀİ":6908,"áŀ¢áŀĥ":6909,"alition":6910,"although":6911,"aluation":6912,"alena":6913,"Ġinher":6914,"Ġinitiative":6915,"anch":6916,"anies":6917,"anac":6918,"Ġwent":6919,"Ġwra":6920,"Ġwid":6921,"Ġwant":6922,"Ġwalled":6923,"Ġwars":6924,"Ġwinds":6925,"Ġwedding":6926,"Ġwoven":6927,"áŀģáŀĤ":6928,"áŀģáŀļáŀĹ":6929,"áŀģáŀħáŀĺ":6930,"áŀģáŀģáŀİ":6931,"Ġfat":6932,"Ġfine":6933,"Ġfear":6934,"Ġfake":6935,"Ġfried":6936,"Ġfelt":6937,"Ġfront":6938,"Ġfisheries":6939,"Ġbed":6940,"Ġbar":6941,"Ġbig":6942,"Ġbud":6943,"Ġblow":6944,"Ġbag":6945,"Ġbatt":6946,"Ġbiosphere":6947,"Ġbulk":6948,"ĠbÃ¡":6949,"Ġbribes":6950,"Ġbiodi":6951,"Ġpen":6952,"Ġpieces":6953,"Ġpandemic":6954,"Ġprahok":6955,"Ġpinpeat":6956,"Ġpediments":6957,"áŀİáŀĽ":6958,"áŀİáŀĳ":6959,"áŀİáŀĬ":6960,"áŀİáŀĲ":6961,"áŁħáŁĶ":6962,"arf":6963,"ari":6964,"arly":6965,"arter":6966,"arative":6967,"arach":6968,"arious":6969,"arply":6970,"arÄ«":6971,"oura":6972,"áŁĶâĢĭ":6973,"Ġmic":6974,"Ġmour":6975,"Ġmand":6976,"Ġmart":6977,"Ġmural":6978,"Ġmedic":6979,"Ġmachine":6980,"amese":6981,"amouth":6982,"amics":6983,"omes":6984,"omph":6985,"omob":6986,"icon":6987,"icel":6988,"ications":6989,"áŀ¶áŁĨ)":6990,"asmine":6991,"Ġda":6992,"Ġdur":6993,"Ġdim":6994,"Ġdang":6995,"Ġdine":6996,"Ġdog":6997,"Ġdating":6998,"Ġdied":6999,"áŀĹáŀİ":7000,"áŀĴáŀĻ":7001,"áŀĴáŀļáŀĬ":7002,"áŀĴáŀ¡":7003,"áŀĴáŀļáŀĶáŀŁ":7004,"áŀĴáŀĶáŀļ":7005,"áŀĴáŀ¢áŀĶ":7006,"áŀĴáŀļáŀ¢áŀĵ":7007,"áŀłáŀı":7008,"áŀłáŀĳ":7009,"Ġtool":7010,"Ġtold":7011,"Ġtoasted":7012,"leist":7013,"leang":7014,"áŀīáŀĻ":7015,"áŀīáŀģ":7016,"áŀīáŀĶáŀĵ":7017,"ĠCr":7018,"ĠCy":7019,"ĠChe":7020,"ĠCour":7021,"ĠCout":7022,"ĠCred":7023,"ĠCensus":7024,"ĠCamk":7025,"ĠClass":7026,"ĠCompan":7027,"ĠChey":7028,"ĠCabinet":7029,"ĠCode":7030,"ĠCapital":7031,"ĠCOV":7032,"ĠCountry":7033,"ĠCorporation":7034,"odes":7035,"oday":7036,"odhar":7037,"enth":7038,"ented":7039,"entory":7040,"ĠáŁ©":7041,"ĠáŁĢ":7042,"ĠáŀĵáŀĻ":7043,"Ġhar":7044,"Ġhom":7045,"Ġhop":7046,"Ġhands":7047,"Ġhonor":7048,"Ġholy":7049,"Ġholes":7050,"Ġhours":7051,"Ġhundreds":7052,"áŀļáŀĶáŀĶ":7053,"áŀļáŀĶáŀĶáŀŁ":7054,"áŀļáŀĶáŀĶáŀĶ":7055,"áŀļáŀĶáŀĶáŀĳ":7056,"áŀļáŀĶáŀģáŀİ":7057,"ĠTro":7058,"ĠTum":7059,"ĠTai":7060,"ĠTouk":7061,"ĠTreas":7062,"ĠTimes":7063,"ĠTrip":7064,"ĠTuol":7065,"ĠTerrace":7066,"ĠToday":7067,"áŀĲáŀĽ":7068,"áŀĲáŀĻ":7069,"áŀĲáŀĶáŀĳ":7070,"áŀĢáŀĺáŀĵ":7071,"ctang":7072,"áŀķáŀĽ":7073,"Ġreal":7074,"Ġreve":7075,"Ġreject":7076,"Ġreality":7077,"Ġreasons":7078,"Ġrelease":7079,"Ġrectang":7080,"ils":7081,"ilation":7082,"ilies":7083,"ilater":7084,"áŁłáŁ£áŁ¥":7085,"Ġislands":7086,"ĠKor":7087,"ĠKur":7088,"ĠKol":7089,"ĠKong":7090,"ĠKak":7091,"ĠKake":7092,"ĠKhan":7093,"ĠKilling":7094,"ĠKris":7095,"ĠKbach":7096,"ĠKanch":7097,"ĠKomph":7098,"ambhu":7099,"Ġling":7100,"Ġliv":7101,"Ġline":7102,"Ġlions":7103,"Ġlog":7104,"Ġlime":7105,"Ġloot":7106,"Ġleng":7107,"Ġlady":7108,"Ġlingu":7109,"Ġlintels":7110,"Ġever":7111,"Ġeart":7112,"Ġeld":7113,"Ġelis":7114,"Ġemot":7115,"Ġelab":7116,"vements":7117,"Ġ(/":7118,"stressed":7119,"stead":7120,"style":7121,"ĠAnd":7122,"ĠAural":7123,"ĠAps":7124,"ĠAward":7125,"ĠAPSARA":7126,"ĠAZU":7127,"ĠAccess":7128,"ĠApost":7129,"ĠAuthor":7130,"ĠSu":7131,"ĠSer":7132,"ĠSan":7133,"ĠSri":7134,"ĠSiv":7135,"ĠSoc":7136,"ĠSpe":7137,"ĠSha":7138,"ĠSup":7139,"ĠSway":7140,"ĠSever":7141,"ĠSangk":7142,"ĠSaf":7143,"ĠScience":7144,"ĠSorvong":7145,"ĠSVO":7146,"ĠSoviet":7147,"ĠSaig":7148,"ĠSnay":7149,"ĠSinn":7150,"Ġnor":7151,"Ġnine":7152,"Ġnav":7153,"Ġnag":7154,"Ġnick":7155,"rol":7156,"room":7157,"road":7158,"ĠPen":7159,"ĠPra":7160,"ĠPag":7161,"ĠPail":7162,"ĠPrah":7163,"ĠPurs":7164,"ĠPanorama":7165,"merly":7166,"lymp":7167,"Ġthing":7168,"Ġthom":7169,"Ġthrow":7170,"Ġbeg":7171,"Ġbeaches":7172,"Ġbeaut":7173,"urity":7174,"uries":7175,"urred":7176,"verb":7177,"emies":7178,"olit":7179,"olut":7180,"Ġgri":7181,"Ġgain":7182,"Ġgone":7183,"Ġgates":7184,"Ġgather":7185,"Ġglass":7186,"Ġgrid":7187,"Ġgreen":7188,"Ġgambling":7189,"Ġgrants":7190,"Ġgranted":7191,"thy":7192,"this":7193,"thong":7194,"áŀļáŀĬáŀİ":7195,"ĠKhmerisation":7196,"rie":7197,"rif":7198,"righ":7199,"rimp":7200,"riages":7201,"áŀº:":7202,"áŀºáŁĶ":7203,"áŀĵáŀĢáŀļ":7204,"áŀĵáŀĢáŀħ":7205,"áŀĵáŀĢáŀģ":7206,"áŀĵáŀĢáŀļáŀĶ":7207,"áŀĵáŀĢáŀĦáŀĳ":7208,"áŀĵáŀĢáŀ¢áŀĦ":7209,"áŀĵáŀĢáŀ¯":7210,"áŀĵáŀĢáŀĵáŀĻ":7211,"ĠTheir":7212,"raw":7213,"rade":7214,"racha":7215,"ĠáŀĢáŀī":7216,"using":7217,"áŀĵáŀĶáŀļ":7218,"áŀĵáŀĶáŀĳ":7219,"áŀĵáŀĶáŀĬ":7220,"istle":7221,"istries":7222,"istrict":7223,"áŀĭáŀĽ":7224,"áŀĭáŀĳ":7225,"áŀĭáŀŁáŀĦ":7226,"ulner":7227,"eting":7228,"áŀļáŀĩáŀĵáŀĩ":7229,"Ġconclud":7230,"Ġconnot":7231,"Ġconvey":7232,"Ġforce":7233,"Ġforfe":7234,"ĠIll":7235,"ĠIron":7236,"ĠIEC":7237,"ĠILO":7238,"Ġstra":7239,"Ġstamp":7240,"Ġstorm":7241,"Ġstup":7242,"Ġstair":7243,"Ġstick":7244,"Ġstories":7245,"Ġstrip":7246,"Ġstadium":7247,"ithing":7248,"Ġ27":7249,"áŀļáŀĢáŀĬ":7250,"áŀļáŀĢáŀĲ":7251,"áŀľáŀĶáŀĦ":7252,"ĠRos":7253,"ĠRese":7254,"ĠRural":7255,"ĠRÃ©":7256,"ima":7257,"iming":7258,"imeter":7259,"lain":7260,"laden":7261,"áŀĦáŀĳáŀĶ":7262,"term":7263,"tery":7264,"termin":7265,"terday":7266,"ĠáŀĶáŀħ":7267,"áŀĦáŀĢáŀŁ":7268,"áŀĦáŀĢáŀİ":7269,"áŀĦáŀĶáŀİ":7270,"igable":7271,"áŀĺáŀĢáŀļ":7272,"áŀĺáŀĢáŀŁ":7273,"áŀĺáŀĢáŀĳáŀŁ":7274,"áŀĺáŀĢáŀĳáŀĽ":7275,"apura":7276,"apped":7277,"ĠáŀŁáŀļ":7278,"ĠáŀŁáŀĸ":7279,"ĠáŀŁáŀļáŀŁ":7280,"ĠáŀŁáŀıáŀľáŀı":7281,"Ġonward":7282,"ĠMat":7283,"ĠMain":7284,"ĠMag":7285,"ĠMade":7286,"ĠMuch":7287,"ĠMaster":7288,"ĠMembers":7289,"áŀĦáŀŁáŀĵ":7290,"áŀĦáŀŁáŀļ":7291,"áŀĦáŀŁáŀĸ":7292,"unal":7293,"áŁĪ(":7294,"estoration":7295,"estock":7296,"ĠáŁ¡áŁ¡":7297,"Ġwhistle":7298,"aded":7299,"adily":7300,"oti":7301,"oted":7302,"otion":7303,"otel":7304,"otum":7305,"otted":7306,"othea":7307,"ĠBas":7308,"ĠBet":7309,"ĠBel":7310,"ĠBass":7311,"ĠBoth":7312,"ĠBotum":7313,"ivoy":7314,"utin":7315,"utes":7316,"utation":7317,"áŁ¢áŁ¦":7318,"áŁ¢áŁ¦áŁł":7319,"áŀĻáŀĢáŀļ":7320,"áŀĻáŀĢáŀĦ":7321,"áŀĻáŀĢáŀĸ":7322,"áŀĻáŀĢáŀĬ":7323,"respect":7324,"ude":7325,"udicial":7326,"Ġthatch":7327,"mentation":7328,"mentary":7329,"osen":7330,"osyllabic":7331,"osystem":7332,"Ġorchest":7333,"Ġalphabet":7334,"ĠáŀĤáŀĺ":7335,"ateau":7336,"ĠWe":7337,"ĠWords":7338,"ĠWashing":7339,"ĠWindows":7340,"Ġáŀĺáŀĵ":7341,"Ġáŀĺáŀĳ":7342,"Ġvol":7343,"Ġvong":7344,"Ġvac":7345,"Ġvener":7346,"Ġvulner":7347,"Ġproble":7348,"Ġprote":7349,"Ġproxim":7350,"Ġprolific":7351,"Ġdel":7352,"Ġdeep":7353,"áŀĺáŀĵáŀĵ":7354,"Ġitems":7355,"ounter":7356,"Ġanyth":7357,"Ġanti":7358,"áŀĽáŀĶáŀħ":7359,"áŀĽáŀĶáŀģ":7360,"Ġkd":7361,"Ġkin":7362,"Ġkro":7363,"Ġkong":7364,"Ġkind":7365,"Ġkick":7366,"Ġkanor":7367,"Ġkuy":7368,"ĠkampuciÉĻ":7369,"Ġkhans":7370,"Ġsup":7371,"Ġsupre":7372,"ournal":7373,"áŀļáŀŁáŀĶ":7374,"áŀļáŀŁáŀĹ":7375,"ĠFran":7376,"ĠFund":7377,"ĠFederation":7378,"ĠFamily":7379,"ĠFUN":7380,"ĠFields":7381,"ĠFebru":7382,"áŁĹáŀĶ":7383,"áŁĹáŀĨ":7384,"áŁĹáŀļáŀĶáŀŁ":7385,"áŀĻáŀĶáŀļ":7386,"anging":7387,"angible":7388,"áŁĬáŀ¾":7389,"eling":7390,"elry":7391,"ellow":7392,"ellect":7393,"elves":7394,"andle":7395,"plementary":7396,"áŀļáŀłáŀĺáŀĢ":7397,"áŀļáŀłáŀĺáŀı":7398,"áŀļáŀłáŀĺáŀĸ":7399,"áŀļáŀłáŀĺáŀģ":7400,"Ġris":7401,"Ġrich":7402,"Ġrone":7403,"Ġrates":7404,"ĠrÃ´":7405,"Ġ192":7406,"Ġ196":7407,"Ġ1969":7408,"aked":7409,"aken":7410,"áŀļáŀĺáŀł":7411,"áŀļáŀĺáŀŁáŀĺ":7412,"áŀĵáŀĬáŀİ":7413,"áŀĵáŀĬáŀĢáŀĲáŀĻáŀħ":7414,"áŀļáŀĸáŀı":7415,"Ġcomes":7416,"Ġworst":7417,"urely":7418,"áŁ¡áŁ¦":7419,"hnang":7420,"áŀĦáŀĸáŀĽáŀĢáŀĺ":7421,"abled":7422,"aburi":7423,"ocide":7424,"astic":7425,"icals":7426,"Ġextermin":7427,"iful":7428,"ifest":7429,"ifies":7430,"ums":7431,"umes":7432,"áŀĻáŀŁáŀĶ":7433,"áŁĮâĢĭ":7434,"áŁĮáŁĶ":7435,"áŀĵáŀĤáŀļáŀĬ":7436,"áŀĵáŀĤáŀļáŀĤ":7437,"ĠHa":7438,"ĠHo":7439,"ĠHolocene":7440,"ĠHonorifics":7441,"ĠHotel":7442,"ĠVict":7443,"ĠVilla":7444,"ĠVrah":7445,"ĠVorvong":7446,"áŁ¥áŁłáŁłáŁł":7447,"ĠáŁ¢áŁ§":7448,"áŀĦáŀ¢áŀļ":7449,"áŀĦáŀ¢áŀĹ":7450,"ĠThous":7451,"ĠThme":7452,"ĠNol":7453,"ĠNot":7454,"ĠNik":7455,"ĠNortheast":7456,"áŀļáŀĵáŀļ":7457,"áŀļáŀĵáŀĻ":7458,"clo":7459,"clam":7460,"clock":7461,"quet":7462,"quences":7463,"áŀļáŀıáŀĺ":7464,"áŀļáŀıáŀľ":7465,"áŀĻáŀĵáŀĹáŀİ":7466,"Ġseats":7467,"Ġseasons":7468,"Ġseemed":7469,"Ġselected":7470,"Ġsequences":7471,"áŀĮáŀŁ":7472,"áŀĮáŀĸ":7473,"áŀĮáŀĤ":7474,"áŀĮáŀĽáŀĵ":7475,"áŀĮáŀĽáŀĳ":7476,"acity":7477,"ĠáŀĳáŀŁ":7478,"áŀĻáŀĺáŀĩ":7479,"áŀĻáŀĺáŀĬ":7480,"áŀĻáŀĺáŀĤ":7481,"áŀĻáŀĺáŀľ":7482,"áŀĻáŀĺáŀļáŀĶáŀŁ":7483,"áŀļáŀİáŀĶáŀĵ":7484,"ppings":7485,"Ġcentres":7486,"Ġcentered":7487,"itions":7488,"ĠChild":7489,"ĠChuon":7490,"ĠChoeung":7491,"ĠChhnang":7492,"ĠáŀļáŀĦ":7493,"ĠáŀļáŀĻ":7494,"ĠáŀļáŀĻáŀĢ":7495,"Ġleaf":7496,"Ġneed":7497,"Ġneither":7498,"Ġnext":7499,"Ġáŀ¢áŀĢ":7500,"Ġáŀ¢áŀĺ":7501,"Ġáŀ¢áŀĤ":7502,"Ġáŀ¢áŀĹ":7503,"Ġáŀ¢áŀĥ":7504,"áŀ±áŀĢ":7505,"áŀĻáŀĬáŀĦ":7506,"áŀĻáŀĬáŀĽ":7507,"áŀĵáŀŁáŀĦ":7508,"áŀĵáŀŁáŀİ":7509,"áŀĵáŀŁáŀł":7510,"áŀĵáŀŁáŀī":7511,"áŀĵáŀŁáŀļáŀŁ":7512,"ĠInteg":7513,"ĠInitiative":7514,"ĠInstitute":7515,"ĠInstead":7516,"áŀĵáŀĳáŀĵ":7517,"áŀıáŀĢáŀŁ":7518,"áŀĦáŀĺáŀĦ":7519,"Ġarrest":7520,"áŁ£áŁ£":7521,"áŀļáŀľáŀĢáŀĺ":7522,"ietal":7523,"ieties":7524,"sec":7525,"áŀ¶âĢĭâĢĭ":7526,"Ġclashing":7527,"Ġcliff":7528,"ĠDay":7529,"ĠDav":7530,"ĠDict":7531,"ĠDuong":7532,"ĠDistrict":7533,"ĠEk":7534,"ĠEle":7535,"ĠEra":7536,"ĠEdition":7537,"ĠEink":7538,"ĠEarly":7539,"antic":7540,"áŀĢáŀĬáŀĵ":7541,"áŁĭâĢĭáŁĶ":7542,"rency":7543,"Ġintric":7544,"Ġintimates":7545,"Ġintellig":7546,"Ġintellect":7547,"áŁ¤áŁ¥":7548,"ĠReg":7549,"ĠReach":7550,"ĠReasons":7551,"Ġáŀħáŀĺ":7552,"ĠáŀħáŀĦ":7553,"ĠáŀħáŀĽ":7554,"áŀĢáŀŁáŀļ":7555,"áŀļáŀħáŀĦ":7556,"Ġchains":7557,"Ġchair":7558,"Ġchosen":7559,"ternatively":7560,"Ġubiqu":7561,"Ġuvular":7562,"ĠWater":7563,"ĠWatch":7564,"Ġheart":7565,"Ġheard":7566,"Ġheight":7567,"áŀļáŀĦáŀļ":7568,"áŀļáŀĦáŀĽ":7569,"áŀļáŀĦáŀļáŀĶáŀŁ":7570,"ĠLon":7571,"ĠLan":7572,"ĠLove":7573,"ĠLank":7574,"ĠLibr":7575,"ĠLocated":7576,"ĠLiber":7577,"Ġunc":7578,"Ġunless":7579,"Ġunlike":7580,"Ġunmar":7581,"Ġuninhab":7582,"ĠUnder":7583,"ĠUCB":7584,"ĠUdong":7585,"áŁ¦áŁ¥":7586,"áŁ¦áŁ¦":7587,"áŁ¦áŁłáŁłáŁł":7588,"áŀĢáŀļáŀĤ":7589,"Ġable":7590,"Ġabrupt":7591,"Ġabug":7592,"Ġabdic":7593,"Ġabroad":7594,"Ġshown":7595,"Ġshift":7596,"Ġsharply":7597,"Ġshrimp":7598,"Ġcontained":7599,"namese":7600,"áŀĦáŀļáŀĽ":7601,"áŀĦáŀļáŀĲ":7602,"Ġrelate":7603,"Ġrelating":7604,"Ġconsolid":7605,"oki":7606,"oking":7607,"ĠOm":7608,"ĠOr":7609,"ĠOver":7610,"ĠOng":7611,"ĠOuk":7612,"ĠOfficial":7613,"ĠOcean":7614,"ĠOlymp":7615,"Ġparties":7616,"áŀĵáŀļáŀĦáŀĵ":7617,"Ġspons":7618,"Ġsports":7619,"Ġspices":7620,"Ġperman":7621,"Ġperfect":7622,"Ġperimeter":7623,"early":7624,"opular":7625,"avan":7626,"avana":7627,"áŀ§áŀĶáŀĳ":7628,"áŀĤáŀļáŀļ":7629,"áŀ¯áŀĸ":7630,"áŀ¯áŀĢáŀĹ":7631,"ĠáŁłáŁ¡":7632,"agn":7633,"aging":7634,"agement":7635,"ĠBuddhas":7636,"ĠGod":7637,"ĠGener":7638,"ĠGov":7639,"ĠGolden":7640,"Ġyellow":7641,"áŀ»áŁĩâĢĭ":7642,"Ġtrading":7643,"Ġpopulated":7644,"Ġpopulous":7645,"hentic":7646,"Ġnotably":7647,"áŀĶáŀĦáŀŁáŀĺ":7648,"áŀĦáŀĤáŀĺ":7649,"Ġdisyllabic":7650,"Ġdisrespect":7651,"Ġadmit":7652,"Ġregener":7653,"Ġregained":7654,"Ġregarding":7655,"Ġrepair":7656,"Ġrepetitive":7657,"Ġrepatri":7658,"igned":7659,"ĠJar":7660,"ĠJet":7661,"ĠJud":7662,"ĠJava":7663,"Ġserious":7664,"áŀĺáŀłáŀĵ":7665,"áŁ§áŁ£":7666,"ructed":7667,"ructive":7668,"Ġoverran":7669,"Ġoversee":7670,"Ġovergrow":7671,"Ġoverwhel":7672,"conson":7673,"lised":7674,"Ġimage":7675,"Ġimag":7676,"Ġimplemented":7677,"áŁ¨áŁ¥áŁł":7678,"Ġcountryside":7679,"áŀŁáŀļáŀģ":7680,"ressively":7681,"áŀĽáŀĬáŀĬ":7682,"Ġinflect":7683,"Ġinflection":7684,"Ġinfixes":7685,"Ġreserve":7686,"tenance":7687,"áŀĵáŀķáŀĽ":7688,"áŀĵáŀķáŀĽáŀŁ":7689,"áŀĵáŀķáŀŁáŀŁáŀĩ":7690,"Ġmonth":7691,"Ġmonoph":7692,"Ġmonosyllabic":7693,"Ġmonastic":7694,"Ġprovincial":7695,"Ġcommission":7696,"wood":7697,"áŀĵáŀĺáŀĢáŀĺ":7698,"Ġcanal":7699,"Ġprinces":7700,"áŀĵáŀ¢áŀĶ":7701,"Ġbutt":7702,"Ġplains":7703,"Ġplacate":7704,"Cambodians":7705,"áŀŁáŀħáŀļáŀĶáŀļáŀĳ":7706,"elling":7707,"ellery":7708,"Ġenfor":7709,"Ġenemies":7710,"Ġspeaking":7711,"Ġcapacity":7712,"Ġbetter":7713,"Ġgovernance":7714,"Ġgovernors":7715,"Ġmarine":7716,"Ġmaritime":7717,"Ġfollowers":7718,"áŀĦáŀľáŀŁ":7719,"áŀĤáŀĺáŀı":7720,"áŀĤáŀĺáŀļáŀĶáŀŁ":7721,"Ġmeals":7722,"Ġevict":7723,"Ġevolved":7724,"Ġevaluation":7725,"osei":7726,"Ġundert":7727,"Ġunderway":7728,"Ġunderto":7729,"teav":7730,"text":7731,"Ġpref":7732,"Ġprefer":7733,"Ġprehist":7734,"Ġexpand":7735,"Ġexplic":7736,"Ġ37":7737,"Ġ300":7738,"Ġ350":7739,"Ġbecoming":7740,"Ġbecomes":7741,"áŀıáŀĳáŀĳ":7742,"Ġremarry":7743,"Ġremoved":7744,"Ġjure":7745,"Ġjobs":7746,"Ġjuice":7747,"Ġjasmine":7748,"ĠriÉĻp":7749,"Ġinvade":7750,"Ġinventory":7751,"Ġinvaded":7752,"Ġconstitu":7753,"Ġbasket":7754,"Ġphase":7755,"Ġmaintains":7756,"Ġmaintenance":7757,"Ġmillions":7758,"ĠáŁ£áŁ£":7759,"Ġrecla":7760,"Ġrecover":7761,"Ġrecovered":7762,"Ġcompet":7763,"Ġcompany":7764,"Ġcomplic":7765,"Ġcompanies":7766,"áŁ¡áŁ©áŁ¥":7767,"áŁ¡áŁ©áŁ¨":7768,"ransitive":7769,"áŀ¬áŀĳ":7770,"Ġdesser":7771,"Ġelect":7772,"Ġelections":7773,"áŀĦáŀŁáŀĺáŀļáŀĹ":7774,"áŀĦáŁĹáŀĢ":7775,"áŀĦáŁĹáŀĶ":7776,"áŀĦáŁĹáŀĩ":7777,"áŀĦáŁĹáŀĹ":7778,"ĠArt":7779,"Ġ1999":7780,"Ġattack":7781,"Ġattention":7782,"áŀĺáŀĬáŀİ":7783,"áŀĻáŀ¢áŀĹ":7784,"Ġrabai":7785,"Ġradi":7786,"áŀĤáŀıáŀļáŀĶáŀŁ":7787,"ought":7788,"Ġ1978":7789,"licts":7790,"Ġfeeling":7791,"áŁĪâĢĭ(":7792,"Ġchildbirth":7793,"ËĲn":7794,"Ġaccent":7795,"Ġaccounts":7796,"Ġculturally":7797,"Ġmaxim":7798,"Ġmahor":7799,"iverse":7800,"Ġquite":7801,"Ġquick":7802,"Ġquartz":7803,"áŀĵáŀĹáŀĢ":7804,"áŀĦáŀķáŀĽ":7805,"Ġscene":7806,"Ġscarf":7807,"ensity":7808,"Ġdistrict":7809,"oduct":7810,"Ġclasses":7811,"psed":7812,"arma":7813,"Ġdevelopments":7814,"ĠáŁ¡áŁ©áŁ§áŁ¤":7815,"ĠáŁ¡áŁ©áŁ§áŁ¨":7816,"Ã©an":7817,"Ã©tat":7818,"Ġtransferred":7819,"Ġsurvey":7820,"Ġfamili":7821,"Ġfamilies":7822,"rimary":7823,"haÉĻj":7824,"luence":7825,"Ġenth":7826,"áŀĢáŀħáŀĦ":7827,"Ġinterests":7828,"Ġlocation":7829,"ĠStir":7830,"ĠStadium":7831,"ĠStatistics":7832,"Ġcoordin":7833,"Ġplus":7834,"Ġplant":7835,"Ġplurality":7836,"olding":7837,"ĠDefen":7838,"ĠDepart":7839,"Ġroyals":7840,"Ġmarking":7841,"Ġ85":7842,"Ġ88":7843,"Ġ800":7844,"Ġ862":7845,"áŀĵáŀŁáŀĺáŀı":7846,"Ġoutcom":7847,"Ġinstance":7848,"Ġinstalled":7849,"Ġinstruction":7850,"Ġinstability":7851,"ominal":7852,"Ġ180":7853,"Ġ181":7854,"Ġvisible":7855,"Ġaged":7856,"Ġages":7857,"Ġagreed":7858,"Ġhistoric":7859,"Ġlaterite":7860,"ĠProg":7861,"áŁ¢áŁłáŁłáŁ¡":7862,"áŁ¢áŁłáŁłáŁ¨":7863,"áŀļáŀłáŀĺáŀĤ":7864,"Ġsystems":7865,"áŀħáŀĳáŀĳ":7866,"Ġinspired":7867,"áŀĴáŀĵáŀĻ":7868,"Ġended":7869,"Ġending":7870,"Ġendow":7871,"áŁīáŁģáŁĶ":7872,"Ġprotesters":7873,"Ġrepresentative":7874,"Ġrepresentatives":7875,"Ġcarve":7876,"Ġcarri":7877,"Ġcarries":7878,"Ġcarving":7879,"Ġdozen":7880,"Ġimplying":7881,"Angkorian":7882,"ĠáŀļáŀĶáŀĶáŀĳ":7883,"ĠáŀļáŀĶáŀĶáŀĲ":7884,"Ġsocietal":7885,"Ġrestaur":7886,"Ġlikely":7887,"Ġlikewise":7888,"Ġnorthwestern":7889,"ĠáŁ¡áŁ¨áŁł":7890,"ĠáŁ¡áŁ¨áŁ¡áŁ£":7891,"ĠáŁ¡áŁ¨áŁ¦áŁł":7892,"ĠáŁ¢áŁłáŁłáŁł":7893,"ĠáŁ¢áŁłáŁłáŁ¥":7894,"ĠáŁ¢áŁłáŁłáŁ£":7895,"Ġservant":7896,"ĠArchaeological":7897,"Ġpersist":7898,"Ġmini":7899,"Ġmines":7900,"Ġminib":7901,"Ġministries":7902,"Ġminutes":7903,"ĠáŁ¤áŁ¨":7904,"áŁ¢áŁłáŁ¡áŁ£":7905,"Ġvarieties":7906,"áŁ¡áŁłáŁ¥áŁł":7907,"à¤®":7908,"à¤¶":7909,"Ġflights":7910,"ĠáŁ¦áŁłáŁł":7911,"ĠáŁ¦áŁ§":7912,"ĠáŁ§áŁł":7913,"ĠáŁ§áŁłáŁł":7914,"Ġartic":7915,"Ġartists":7916,"Ġartistic":7917,"Ġcommunic":7918,"Ġcommunities":7919,"ibly":7920,"ibility":7921,"pective":7922,"yscra":7923,"Ġherself":7924,"Ġcorrupt":7925,"Ġcorrid":7926,"Ġcorners":7927,"Ġcorpse":7928,"Ġweap":7929,"Ġbooming":7930,"ĠáŁ¨áŁ¥":7931,"Ġhighlands":7932,"ĠAnnam":7933,"ĠAntÃ³n":7934,"ĠParts":7935,"ĠParliament":7936,"ĠMahab":7937,"ĠMajum":7938,"ĠUNTAC":7939,"Ġmeanings":7940,"Ġforested":7941,"Ġpoliteness":7942,"formations":7943,"áŀıáŀļáŀıáŀĵáŀĤ":7944,"áŀĻáŀķáŀĽ":7945,"áŀĻáŀķáŀĦáŀĬ":7946,"Ġwriter":7947,"Ġwritings":7948,"Ġdivides":7949,"Ġnobility":7950,"ĠWorking":7951,"ĠIndianised":7952,"Ġdecorate":7953,"Ġpossibly":7954,"Ġprotected":7955,"Ġapproved":7956,"llite":7957,"thera":7958,"Ġ53":7959,"Ġmov":7960,"Ġmoon":7961,"Ġ1113":7962,"Ġstyles":7963,"Ġstylised":7964,"ĠáŁ¡áŁ¥áŁ©áŁ":7965,"ĠáŁ¡áŁ¥áŁ¢áŁ¥":7966,"ĠáŁ¡áŁ¥áŁ¤áŁ¡":7967,"Ġdepart":7968,"áŁ¡áŁ¡áŁ¦áŁł":7969,"áŁ¡áŁ¡áŁ¦áŁ¥":7970,"Ġarms":7971,"Ġarmies":7972,"ĠUnion":7973,"Ġpopularity":7974,"Ġindicative":7975,"Ġvisitor":7976,"Ġsymbols":7977,"Ġsymbolise":7978,"attanac":7979,"Ġsoften":7980,"Ġsimple":7981,"Ġsimultaneously":7982,"Ġsignify":7983,"Ġdemol":7984,"Ġdemons":7985,"Ġrefers":7986,"Ġrefused":7987,"Ġeffort":7988,"Ġbelief":7989,"Ġbelongs":7990,"Ġ1432":7991,"Ġ1431":7992,"Ġsevere":7993,"áŀļáŀĹáŀĸáŀĳ":7994,"áŀļáŀĹáŀĸáŀģ":7995,"áŀļáŀĹáŀĸáŀĺáŀĢáŀĸ":7996,"áŁ¡áŁ©áŁ§áŁ¥":7997,"áŁ¡áŁ©áŁ§áŁ¦":7998,"Ġeconomically":7999,"lier":8000,"preah":8001,"Ġ65":8002,"áŀŁáŀłáŀĹ":8003,"áŀĽáŀħáŀĦ":8004,"Ġopponents":8005,"Ġopportun":8006,"Ġoppression":8007,"Ġsoutheastern":8008,"Ġgarud":8009,"Ġgarlic":8010,"Ġgarlands":8011,"Ġ162":8012,"Ġ1698":8013,"ĠáŁ¢áŁłáŁ¡áŁł":8014,"ĠáŁ¢áŁłáŁ¡áŁ¢":8015,"ĠáŁ¢áŁłáŁ¢áŁ£":8016,"ĠáŁ¡áŁ©áŁ©áŁ¡":8017,"Ġspirit":8018,"ologically":8019,"Ġsupporting":8020,"Ġcontinues":8021,"Ġcontinuing":8022,"....":8023,"1993":8024,"full":8025,"iques":8026,"ungle":8027,"Ã¢m":8028,"Éĳl":8029,"ĠYat":8030,"ĠYaÅĽ":8031,"Ġactual":8032,"Ġsituation":8033,"Ġwarring":8034,"Ġpractical":8035,"Ġpractised":8036,"ompass":8037,"Ġdirectly":8038,"Ġdirective":8039,"áŀĴáŀķáŀĽáŀĶ":8040,"Ġlonger":8041,"versity":8042,"Ġ127":8043,"Ġ1795":8044,"ordinating":8045,"Ġinvestors":8046,"eping":8047,"iÉĻp":8048,"ronom":8049,"venues":8050,"yths":8051,"Ġesc":8052,"áŀĺáŀĹáŀĢ":8053,"related":8054,"relief":8055,"Ġolder":8056,"Ġoldest":8057,"Ġsingers":8058,"Ġsingular":8059,"Ġpassing":8060,"Ġpassive":8061,"Ġpassage":8062,"Ġderives":8063,"ĠáŁ¡áŁ¤áŁ£áŁ¢":8064,"ĠáŁ¡áŁ©áŁ¥áŁł":8065,"ĠáŁ¡áŁ©áŁ¥áŁ¥":8066,"ĠáŁ¡áŁ©áŁ¥áŁ¨":8067,"Ġindependently":8068,"Ġspecul":8069,"Ġhistorically":8070,"Ġliteracy":8071,"product":8072,"É¨n":8073,"Ġáŀ§áŀŁáŀĹ":8074,"áŀĵáŀĪáŀĶ":8075,"Ġcases":8076,"Ġcasual":8077,"Ġcivilization":8078,"Ġprime":8079,"Ġdams":8080,"Ġdamaged":8081,"Ġdominant":8082,"ĠTourist":8083,"Ġ159":8084,"Ġ1586":8085,"Ġ1549":8086,"áŁ¡áŁ¤áŁ¢áŁ¥":8087,"ĠVisit":8088,"Ġseasonal":8089,"Ġcharge":8090,"áŁ¡áŁ©áŁ©áŁ¡":8091,"áŁ¡áŁ©áŁ©áŁ©":8092,"Ġappeared":8093,"104":8094,"Siamese":8095,"ĠáŀĺáŀĢáŀĶ":8096,"Ġparliament":8097,"Ġreferent":8098,"Ġequally":8099,"Ġ105":8100,"Ġ1372":8101,"ravarman":8102,"Ġconnections":8103,"Ġdevas":8104,"Ġlegs":8105,"ĠáŁ¡áŁ©áŁ¦áŁ¢":8106,"Ġinvolving":8107,"2001":8108,"Ġidentifies":8109,"áŀĻáŀĺáŀĢáŀĶ":8110,"Ġceiling":8111,"Ġceramics":8112,"Ġcurrency":8113,"Ġcraft":8114,"Ġfuneral":8115,"Ġfunerary":8116,"Ġpointing":8117,"Ġmanaged":8118,"Ġmanufact":8119,"Ġmiddle":8120,"Ġdestination":8121,"Ġdestructive":8122,"ĠTrade":8123,"ĠTrains":8124,"ĠTraditional":8125,"ĠSisamouth":8126,"Ġconfisc":8127,"Ġconflicts":8128,"Ġconfluence":8129,"Ġstela":8130,"Ġsteep":8131,"Ġsteadily":8132,"Ġdefine":8133,"Ġdefined":8134,"Ġdefensive":8135,"Ġconsistently":8136,"Ġestimates":8137,"Ġdepiction":8138,"Ġdepictions":8139,"eguarding":8140,"ĠZheng":8141,"áŁ©áŁ¥":8142,"áŀĶáŀľáŀļáŀĵ":8143,"Ġauto":8144,"Ġautomob":8145,"Ġauthentic":8146,"áŀĤáŀħáŀĺáŀĳ":8147,"áŀĤáŀħáŀĺáŀĬ":8148,"áŀĤáŀħáŀĺáŀĤ":8149,"Ġskyscra":8150,"Ġfactor":8151,"Ġdraw":8152,"Ġdrawn":8153,"legal":8154,"ĠCommunist":8155,"ĠCommunity":8156,"Ġresear":8157,"Ġvoice":8158,"Ġvoicing":8159,"ĠkeËĲ":8160,"Ġsubjects":8161,"Ġseparated":8162,"Ġnegation":8163,"Ġnegative":8164,"Ġneglected":8165,"Ġnegoti":8166,"Ġtranslation":8167,"Ġyoungest":8168,"kaËĲ":8169,"Äģda":8170,"reweries":8171,"Ġclearly":8172,"Ġfishing":8173,"Ġmultitud":8174,"Ġlowland":8175,"Ġlasting":8176,"ĠSea":8177,"ĠSeima":8178,"ĠPhum":8179,"ĠPhsar":8180,"Ġthreaten":8181,"Ġthreatened":8182,"chinburi":8183,"Ġstudies":8184,"Ġstudents":8185,"Ġorganised":8186,"Ġorganized":8187,"Ġorganisations":8188,"Ġdeclarative":8189,"Ġruling":8190,"Ġexisting":8191,"Ġheavy":8192,"Ġheavens":8193,"Ġreplace":8194,"Ġsurviving":8195,"Ġaccessible":8196,"Ġflooded":8197,"Ġeffects":8198,"Ġeffective":8199,"Ġdistinctly":8200,"Ġsuggests":8201,"Ġsuggested":8202,"Ġtribal":8203,"onstruction":8204,"Ġsacrif":8205,"Ġfriar":8206,"Ġpresented":8207,"ĠPrin":8208,"ĠTheravÄģda":8209,"ĠResources":8210,"ĠáŁ¡áŁ©áŁłáŁ£":8211,"Ġprogressed":8212,"Ġprogressively":8213,"ĠáŁ¢áŁ¥áŁłáŁłáŁłáŁł":8214,"ĠáŁ¡áŁ©áŁ¨áŁ¥":8215,"ĠáŁ¡áŁ©áŁ¨áŁ¤":8216,"ĠáŁ¡áŁ©áŁ¨áŁ©":8217,"Ġclosely":8218,"Ġrelationship":8219,"ĠOnly":8220,"ĠOnline":8221,"Ġprecede":8222,"Ġprecedes":8223,"Ġjointly":8224,"Ġquarried":8225,"Ġquarters":8226,"Ġterritories":8227,"Ġmarkets":8228,"Ġoccurred":8229,"Ġoccurring":8230,"Ġcircuit":8231,"981":8232,"oeus":8233,"tches":8234,"Ã´t":8235,"Ġáŀ©":8236,"Ġáŀ°":8237,"áŀ«áŀŁ":8238,"áŀļáŀĺáŀĢáŀĢ":8239,"áŀļáŀĺáŀĢáŀł":8240,"onym":8241,"Ġsoup":8242,"Ġcovering":8243,"Ġcrime":8244,"Ġcriminal":8245,"Ġflav":8246,"Ġfaced":8247,"Ġfacilities":8248,"Ġblouse":8249,"Ġpoem":8250,"Ġpride":8251,"Ġprivate":8252,"Ġprized":8253,"Ġposthum":8254,"Ġmorphemes":8255,"Ġmassive":8256,"Ġmissionary":8257,"Ġmunicipalities":8258,"Ġretreated":8259,"Ġreceive":8260,"Ġepics":8261,"Ġnaturally":8262,"Ġaspirated":8263,"Ġstrongest":8264,"Ġallegations":8265,"Ġanimal":8266,"Ġtravell":8267,"Ġroads":8268,"Ġencounter":8269,"Ġencompass":8270,"Ġcaptives":8271,"Ġtowns":8272,"Ġinterpretation":8273,"Ġinterpretations":8274,"Ġearliest":8275,"Ġemphasis":8276,"Ġlawyers":8277,"Ġbelieve":8278,"Ġactivities":8279,"Ġdevata":8280,"Ġanalysis":8281,"Ġanalyses":8282,"243":8283,"tomorrow":8284,"ËĪnuh":8285,"à¥ĩ":8286,"à¥ĭ":8287,"à¥į":8288,"Ġsheet":8289,"Ġfull":8290,"Ġfalls":8291,"Ġfalling":8292,"Ġbanning":8293,"Ġbroth":8294,"Ġputting":8295,"Ġhoused":8296,"ĠTransport":8297,"ĠTransformations":8298,"Ġreviving":8299,"Ġreinst":8300,"Ġrequired":8301,"ĠSurvey":8302,"ĠScholars":8303,"ĠMusic":8304,"Ġprofess":8305,"Ġprofession":8306,"Ġextreme":8307,"Ġshortened":8308,"Ġcontexts":8309,"Ġunderstand":8310,"Ġjournal":8311,"Ġrecognises":8312,"Ġteams":8313,"Ġenterpr":8314,"ecution":8315,"Ġpredicate":8316,"Ġpredicative":8317,"Ġneighbours":8318,"Ġimprovement":8319,"Ġimprovements":8320,"Ġkilometre":8321,"harata":8322,"hibition":8323,"ijing":8324,"which":8325,"ÅĽa":8326,"Ġveget":8327,"Ġvehicles":8328,"áŀĵáŀĺáŀĢáŀĬáŀĽ":8329,"áŀĵáŀĺáŀĢáŀĳáŀŁ":8330,"áŀĦáŀ§áŀĢ":8331,"áŀıáŀĺáŀĢáŀĬáŀĽ":8332,"áŀıáŀĺáŀĢáŀĳáŀĽ":8333,"Ġturned":8334,"áŀĻáŀļáŀĶáŀĶáŀĶ":8335,"áŀĻáŀļáŀĶáŀĶáŀģ":8336,"Ġoffered":8337,"Ġoffering":8338,"Ġfireworks":8339,"Ġfirewood":8340,"Ġfarms":8341,"Ġborrowed":8342,"Ġprayers":8343,"Ġmokots":8344,"ĠáŁ©áŁ¡áŁł":8345,"Ġhosts":8346,"Ġissues":8347,"Ġissued":8348,"Ġisolated":8349,"ĠAlthough":8350,"Ġnetworks":8351,"Ġnorms":8352,"Ġnormal":8353,"ĠPolice":8354,"Ġ1505":8355,"Ġstarted":8356,"ĠManagement":8357,"ĠMadalena":8358,"ĠMarchal":8359,"ĠáŁ¡áŁ¡áŁ¨":8360,"ĠBeijing":8361,"áŁ¢áŁ£áŁ§":8362,"Ġ1985":8363,"ĠHuione":8364,"ĠHistorical":8365,"ĠHistoric":8366,"ĠVihear":8367,"Ġlegends":8368,"Ġversus":8369,"Ġversions":8370,"Ġadopt":8371,"Ġexpressway":8372,"Ġconstitution":8373,"Ġattracts":8374,"Ġoriented":8375,"Ġcoastal":8376,"Ġcompletely":8377,"Ġdiffers":8378,"Ġvariation":8379,"Ġsuccession":8380,"Ġsuccessfully":8381,"Ġpotentially":8382,"ĠCatholic":8383,"ĠEuropean":8384,"ĠEuropeans":8385,"035":8386,"Buddhist":8387,"ICC":8388,"common":8389,"communist":8390,"áŀĵáŀļáŀĦáŀļáŀĶ":8391,"Ġaudience":8392,"Ġslings":8393,"Ġslight":8394,"Ġsunrise":8395,"Ġinjuries":8396,"Ġboundary":8397,"Ġboundaries":8398,"Ġpaste":8399,"Ġpressures":8400,"Ġdiam":8401,"Ġdaughters":8402,"ĠConfederation":8403,"Ġhotels":8404,"Ġholding":8405,"ĠKhm":8406,"ĠKhleang":8407,"Ġlayers":8408,"Ġloss":8409,"Ġlibraries":8410,"Ġecosystem":8411,"stitution":8412,"ĠSrey":8413,"ĠSrepok":8414,"ĠPublished":8415,"Ġgenocide":8416,"Ġgirls":8417,"Ġconditions":8418,"áŀĦáŀŁáŀłáŀĤáŀĺáŀĵ":8419,"adesh":8420,"Ġdegree":8421,"Ġworksh":8422,"Ġexperiences":8423,"Ġexecuted":8424,"ĠáŁ¡áŁ©áŁ¤áŁ¥":8425,"Ġintensification":8426,"Ġuniversal":8427,"Ġparticipate":8428,"Ġmaintained":8429,"Ġtechnology":8430,"Ġtechniques":8431,"Ġfewer":8432,"Ġaccompanies":8433,"Ġaccompanied":8434,"Ġcollapse":8435,"Ġcollapsed":8436,"Ġtransportation":8437,"Ġplosive":8438,"Ġearthworks":8439,"Ġestablishing":8440,"Ġestablishment":8441,"Ġsettlement":8442,"Ġsettlements":8443,"Ġdemonstrated":8444,"Ġdemonstratives":8445,"Ġgradual":8446,"Ġgrandeur":8447,"Ġcontrolling":8448,"Ġbusinesses":8449,"ĠPlanning":8450,"Ġflags":8451,"Ġportraying":8452,"ĠMuslim":8453,"Ġsyntactically":8454,"æĹ¥æ":8455,"Ġtargets":8456,"Ġculmination":8457,"Ġculminating":8458,"Ġreconstructed":8459,"141":8460,"Higham":8461,"Highland":8462,"Kambu":8463,"Kamboj":8464,"comment":8465,"nÉ¨Åĭ":8466,"saÊĶ":8467,"shaped":8468,"áŀªáŀĸ":8469,"Ġtells":8470,"region":8471,"Ġsilver":8472,"Ġcounter":8473,"Ġcrowned":8474,"iscovered":8475,"Ġfermented":8476,"Ġfertility":8477,"Ġfocus":8478,"Ġfunded":8479,"Ġfrequent":8480,"Ġbalust":8481,"Ġbomb":8482,"Ġbombing":8483,"Ġbringing":8484,"Ġmutually":8485,"Ġdrink":8486,"Ġdriven":8487,"áŀĴáŀłáŀı":8488,"leyball":8489,"ĠTecho":8490,"ĠTechnology":8491,"Ġlimited":8492,"Ġelse":8493,"ĠAmong":8494,"ĠAmnest":8495,"ĠSarong":8496,"ĠSerei":8497,"ĠSubregion":8498,"ĠPonhea":8499,"ulkiri":8500,"Ġconverted":8501,"Ġstretch":8502,"Ġstretches":8503,"Ġstopped":8504,"Ġstrengthen":8505,"ĠMalay":8506,"ĠMalays":8507,"ĠMarriage":8508,"ĠMondulkiri":8509,"ĠáŁ¡áŁ§áŁ¢áŁ£áŁ§":8510,"ĠBrahma":8511,"Ġvalues":8512,"Ġvictory":8513,"Ġvictims":8514,"Ġprosper":8515,"Ġ1941":8516,"Ġ1945":8517,"Ġextending":8518,"Ġsecular":8519,"Ġsecurity":8520,"ĠChristians":8521,"ĠIntangible":8522,"ĠDivÄģ":8523,"ĠDivorced":8524,"ĠGerman":8525,"ĠGermany":8526,"Ġdissent":8527,"Ġdissolved":8528,"Ġdisappeared":8529,"Ġundergone":8530,"tegrated":8531,"Ġprecise":8532,"Ġremnant":8533,"Ġremnants":8534,"Ġjewelry":8535,"Ġjewellery":8536,"Ġphotograph":8537,"Ġattempt":8538,"Ġattempts":8539,"Ġteachings":8540,"Ġaccounting":8541,"Ġcultivation":8542,"Ġcollars":8543,"Ġcoffin":8544,"Ġcoffee":8545,"Ġincorporated":8546,"Ġweakened":8547,"Ġinvestigations":8548,"Ġconcentric":8549,"Ġconcentrated":8550,"Ġobligatory":8551,"Ġcurrently":8552,"Ġdefeat":8553,"Ġmotorcycle":8554,"Ġmotorcycles":8555,"Ġloanwords":8556,"Ġsouvenirs":8557,"Ġcelebrate":8558,"Ġcelebrates":8559,"Ġfinancial":8560,"Ġdiphthongs":8561,"Ġdiphthong":8562,"Ġnominalisation":8563,"áŀļáŀĢáŀĶáŀļáŀĶáŀļ":8564,"Ġdifficulty":8565,"Adjectives":8566,"Adjectival":8567,"ĠQuay":8568,"Ġachieved":8569,"Ġachievements":8570,"Ġpuppets":8571,"Ġrickshaws":8572,"Devan":8573,"Traditionally":8574,"brella":8575,"colonial":8576,"crossing":8577,"governmental":8578,"uette":8579,"volent":8580,"Ġxyloph":8581,"ĠáŀĴáŀĵáŀī":8582,"Ġ...áŁĶ":8583,"áŀĢáŀ¬áŀĺ":8584,"Ġtaboos":8585,"Ġtorture":8586,"Ġapsaras":8587,"áŀĻáŀ¥áŀİáŀĳ":8588,"Ġcredited":8589,"Ġcreatures":8590,"Ġcustoms":8591,"Ġingredients":8592,"Ġbride":8593,"Ġbracelets":8594,"Ġblessing":8595,"Ġpagodas":8596,"Ġpavilion":8597,"Ġmatch":8598,"Ġmodel":8599,"Ġdwelling":8600,"Ġdynasty":8601,"ĠClimate":8602,"ĠCambodge":8603,"Ġhumidity":8604,"Ġharmony":8605,"Ġretained":8606,"Ġlinked":8607,"Ġeasy":8608,"ĠAgency":8609,"ĠSwadesh":8610,"robreweries":8611,"ĠPromotion":8612,"ĠPrasat":8613,"Ġgestures":8614,"Ġgilded":8615,"Ġconveyed":8616,"Ġconcepts":8617,"ĠMongkol":8618,"ĠMinister":8619,"ĠMunicipal":8620,"Ġorphans":8621,"ĠWikivoy":8622,"Ġvideo":8623,"ĠFinance":8624,"ĠFactories":8625,"ocarbon":8626,"Ġexclusively":8627,"ĠHigham":8628,"ĠVolume":8629,"Ġnecessary":8630,"ĠDharma":8631,"Ġconservative":8632,"Ġtraffic":8633,"Ġregulatory":8634,"Ġpendant":8635,"Ġresidents":8636,"Ġmonastery":8637,"ĠIndonesia":8638,"Ġenjoy":8639,"Ġenacted":8640,"Ġexpectancy":8641,"Ġmillennium":8642,"Ġrarely":8643,"Ġdistinguishing":8644,"Ġcolumns":8645,"Ġtransformation":8646,"Ġinterview":8647,"Ġ1865":8648,"Ġaccepted":8649,"Ġagriculture":8650,"Ġoccasions":8651,"Ġweekly":8652,"Ġwealthy":8653,"ĠRobert":8654,"Ġsubsequent":8655,"á¹Ńa":8656,"Ġcourtyards":8657,"ĠCoedes":8658,"Ġdestroyed":8659,"ÄģgarÄ«":8660,"Ġmultiparty":8661,"Ġloosely":8662,"ĠAustralia":8663,"Ġsucceeded":8664,"Ġfacilitated":8665,"Ġdiplomatic":8666,"Ġreinterpretations":8667,"Ġsustainable":8668,"Ġà¤ķà¤®":8669,"Ġnucleus":8670,"Archaeological":8671,"Ġambiguous":8672,"Ġprominently":8673,"Ġhabitats":8674,"Ġsufficiently":8675,"ĠProtestant":8676,"Ġhierarchical":8677,"ĠArchaeologists":8678,"Ġcrackdowns":8679,"(?)":8680,"ADHO":8681,"CINPEC":8682,"Edge":8683,"GACP":8684,"Geographic":8685,"Kampuchea":8686,"Relative":8687,"Vietnamese":8688,"book":8689,"caËĲp":8690,"facing":8691,"funded":8692,"glutin":8693,"kÃ´r":8694,"largest":8695,"novation":8696,"oËĲsaÊĶ":8697,"paced":8698,"parent":8699,"yesterday":8700,"Ã¶ppen":8701,"æŁ¬":8702,"èı¯":8703,"Ġillegal":8704,"Ġumbrella":8705,"Ġillust":8706,"Ġideas":8707,"ĠêľĽ":8708,"áŀļáŀ¬áŀŁ":8709,"Ġtouch":8710,"Ġtasks":8711,"Ġtallest":8712,"Ġtwenty":8713,"Ġahead":8714,"including":8715,"Ġthemselves":8716,"reeman":8717,"Ġsenior":8718,"Ġsanctions":8719,"Ġsleep":8720,"Ġsatellite":8721,"Ġserey":8722,"Ġclean":8723,"Ġchess":8724,"ĠcÉĳÅĭ":8725,"orcerers":8726,"Ġinherited":8727,"Ġbaguette":8728,"ĠbÃ¡nh":8729,"Ġbiodiversity":8730,"aracha":8731,"Ġmicrobreweries":8732,"Ġmandate":8733,"Ġmartial":8734,"iceless":8735,"leistocene":8736,"ĠCouto":8737,"ĠCamko":8738,"ĠCOVID":8739,"odharapura":8740,"Ġreveal":8741,"Ġrectangular":8742,"ilateral":8743,"ĠKola":8744,"ĠKakey":8745,"ĠKomphus":8746,"ambhuva":8747,"Ġlivestock":8748,"Ġlinguists":8749,"Ġevergreen":8750,"Ġearthen":8751,"Ġelders":8752,"Ġelision":8753,"Ġelaborate":8754,"ĠApsara":8755,"ĠApostolic":8756,"ĠAuthority":8757,"ĠSivutha":8758,"ĠSpean":8759,"ĠSwayambhuva":8760,"ĠSafeguarding":8761,"ĠSaigon":8762,"Ġnavigable":8763,"Ġnicknam":8764,"ĠPrachinburi":8765,"ĠPailin":8766,"ĠPursat":8767,"Ġbeautiful":8768,"áŀĵáŀĢáŀ¯áŀĢáŀĳ":8769,"Ġconcluded":8770,"Ġconnotation":8771,"Ġforfeiture":8772,"Ġstupa":8773,"ĠResearch":8774,"ĠMainland":8775,"ĠBelow":8776,"ĠBassac":8777,"Ġorchestra":8778,"ĠWashington":8779,"Ġvulnerable":8780,"Ġprotein":8781,"Ġproximity":8782,"Ġanything":8783,"Ġkanorng":8784,"Ġkuyteav":8785,"Ġsupreme":8786,"ĠFUNCINPEC":8787,"ĠFebruary":8788,"Ġroneat":8789,"áŀĵáŀĤáŀļáŀĤáŀĺ":8790,"ĠVillage":8791,"ĠNikaya":8792,"clockwise":8793,"ĠChildren":8794,"ĠIntegrity":8795,"Ġarrested":8796,"ĠDavid":8797,"ĠEditions":8798,"ĠEinkosei":8799,"Ġintricate":8800,"Ġintelligible":8801,"Ġintellectual":8802,"Ġubiquitous":8803,"ĠLanka":8804,"ĠLibraries":8805,"ĠLiberation":8806,"Ġunmarried":8807,"Ġuninhabited":8808,"Ġabugida":8809,"Ġconsolidated":8810,"ĠOlympic":8811,"Ġsponsored":8812,"ĠGeneral":8813,"ĠGovPubs":8814,"Ġregenerating":8815,"Ġrepatriation":8816,"Ġoverseeing":8817,"Ġovergrowth":8818,"Ġoverwhelming":8819,"consonant":8820,"Ġmonophthongs":8821,"Ġcommissioned":8822,"Ġundertook":8823,"Ġexplicit":8824,"Ġradiocarbon":8825,"Ġmaximum":8826,"Ġmahori":8827,"Ġquickly":8828,"Ġfamiliar":8829,"Ġcoordinated":8830,"ĠDefense":8831,"ĠDepartment":8832,"Ġoutcomes":8833,"Ġrestaurants":8834,"Ġcorridors":8835,"ĠAntÃ³nio":8836,"ĠMahabharata":8837,"ĠMajumdar":8838,"ĠáŁ¡áŁ¥áŁ©áŁ¤":8839,"ĠYaÅĽodharapura":8840,"Ġmanufacturing":8841,"Ġconfiscated":8842,"Ġautomobile":8843,"Ġskyscraper":8844,"Ġmultitude":8845,"Ġposthumously":8846,"ĠAmnesty":8847,"DevanÄģgarÄ«":8848,"Ġxylophone":8849,"ĠWikivoyage":8850}